{"version":"1.0","truncation":null,"padding":null,"added_tokens":[{"id":0,"special":true,"content":"<s>","single_word":false,"lstrip":false,"rstrip":false,"normalized":false},{"id":1,"special":true,"content":"<pad>","single_word":false,"lstrip":false,"rstrip":false,"normalized":false},{"id":2,"special":true,"content":"</s>","single_word":false,"lstrip":false,"rstrip":false,"normalized":false},{"id":3,"special":true,"content":"<unk>","single_word":false,"lstrip":false,"rstrip":false,"normalized":false},{"id":4,"special":true,"content":"<mask>","single_word":false,"lstrip":false,"rstrip":false,"normalized":false}],"normalizer":null,"pre_tokenizer":{"type":"ByteLevel","add_prefix_space":false,"trim_offsets":true},"post_processor":{"type":"ByteLevel","add_prefix_space":true,"trim_offsets":false},"decoder":{"type":"ByteLevel","add_prefix_space":true,"trim_offsets":true},"model":{"type":"BPE","dropout":null,"unk_token":null,"continuing_subword_prefix":null,"end_of_word_suffix":null,"fuse_unk":false,"vocab":{"<s>":0,"<pad>":1,"</s>":2,"<unk>":3,"<mask>":4,"!":5,"\"":6,"#":7,"$":8,"%":9,"&":10,"'":11,"(":12,")":13,"*":14,"+":15,",":16,"-":17,".":18,"/":19,"0":20,"1":21,"2":22,"3":23,"4":24,"5":25,"6":26,"7":27,"8":28,"9":29,":":30,";":31,"<":32,"=":33,">":34,"?":35,"@":36,"A":37,"B":38,"C":39,"D":40,"E":41,"F":42,"G":43,"H":44,"I":45,"J":46,"K":47,"L":48,"M":49,"N":50,"O":51,"P":52,"Q":53,"R":54,"S":55,"T":56,"U":57,"V":58,"W":59,"X":60,"Y":61,"Z":62,"[":63,"\\":64,"]":65,"^":66,"_":67,"`":68,"a":69,"b":70,"c":71,"d":72,"e":73,"f":74,"g":75,"h":76,"i":77,"j":78,"k":79,"l":80,"m":81,"n":82,"o":83,"p":84,"q":85,"r":86,"s":87,"t":88,"u":89,"v":90,"w":91,"x":92,"y":93,"z":94,"{":95,"|":96,"}":97,"~":98,"¡":99,"¢":100,"£":101,"¤":102,"¥":103,"¦":104,"§":105,"¨":106,"©":107,"ª":108,"«":109,"¬":110,"®":111,"¯":112,"°":113,"±":114,"²":115,"³":116,"´":117,"µ":118,"¶":119,"·":120,"¸":121,"¹":122,"º":123,"»":124,"¼":125,"½":126,"¾":127,"¿":128,"À":129,"Á":130,"Â":131,"Ã":132,"Ä":133,"Å":134,"Æ":135,"Ç":136,"È":137,"É":138,"Ê":139,"Ë":140,"Ì":141,"Í":142,"Î":143,"Ï":144,"Ð":145,"Ñ":146,"Ò":147,"Ó":148,"Ô":149,"Õ":150,"Ö":151,"×":152,"Ø":153,"Ù":154,"Ú":155,"Û":156,"Ü":157,"Ý":158,"Þ":159,"ß":160,"à":161,"á":162,"â":163,"ã":164,"ä":165,"å":166,"æ":167,"ç":168,"è":169,"é":170,"ê":171,"ë":172,"ì":173,"í":174,"î":175,"ï":176,"ð":177,"ñ":178,"ò":179,"ó":180,"ô":181,"õ":182,"ö":183,"÷":184,"ø":185,"ù":186,"ú":187,"û":188,"ü":189,"ý":190,"þ":191,"ÿ":192,"Ā":193,"ā":194,"Ă":195,"ă":196,"Ą":197,"ą":198,"Ć":199,"ć":200,"Ĉ":201,"ĉ":202,"Ċ":203,"ċ":204,"Č":205,"č":206,"Ď":207,"ď":208,"Đ":209,"đ":210,"Ē":211,"ē":212,"Ĕ":213,"ĕ":214,"Ė":215,"ė":216,"Ę":217,"ę":218,"Ě":219,"ě":220,"Ĝ":221,"ĝ":222,"Ğ":223,"ğ":224,"Ġ":225,"ġ":226,"Ģ":227,"ģ":228,"Ĥ":229,"ĥ":230,"Ħ":231,"ħ":232,"Ĩ":233,"ĩ":234,"Ī":235,"ī":236,"Ĭ":237,"ĭ":238,"Į":239,"į":240,"İ":241,"ı":242,"Ĳ":243,"ĳ":244,"Ĵ":245,"ĵ":246,"Ķ":247,"ķ":248,"ĸ":249,"Ĺ":250,"ĺ":251,"Ļ":252,"ļ":253,"Ľ":254,"ľ":255,"Ŀ":256,"ŀ":257,"Ł":258,"ł":259,"Ń":260,"Ġl":261,"os":262,"Ġp":263,"Ġc":264,"er":265,"ar":266,"Ġa":267,"nt":268,"Ġs":269,"as":270,"ue":271,"ci":272,"on":273,"el":274,"or":275,"re":276,"ad":277,"Ġm":278,"st":279,"Ġla":280,"al":281,"que":282,"an":283,"Ã³":284,"Ġt":285,"un":286,"Ġy":287,"Ġque":288,"ent":289,"in":290,"Ġel":291,"ÃŃ":292,"ic":293,"id":294,"Ġn":295,"Ã¡":296,"Ġun":297,"Ã³n":298,"Ġh":299,"om":300,"ra":301,"ro":302,"Ġcon":303,"est":304,"Ġse":305,"di":306,"Ġf":307,"Ġv":308,"aci":309,"am":310,"em":311,"Ġre":312,"do":313,"Ġlos":314,"ec":315,"Ġpar":316,"it":317,"Ġest":318,"le":319,"Ġo":320,"del":321,"Ã©":322,"Ġsu":323,"im":324,"Ġdel":325,"ente":326,"ado":327,"ab":328,"ol":329,"Ġcom":330,"ie":331,"ĠC":332,"Ġal":333,"Ġpor":334,"ĠE":335,"at":336,"Ġb":337,"Ġlas":338,"is":339,"il":340,"Ġpara":341,"Ġg":342,"aciÃ³n":343,"Ġin":344,"iv":345,"Ã±":346,"ĠA":347,"Ġuna":348,"nte":349,"sp":350,"ĠP":351,"Ġno":352,"ĠS":353,"ÃŃa":354,"Ġdi":355,"ul":356,"Ġme":357,"âĢ":358,"te":359,"ac":360,"ir":361,"ien":362,"Ġpro":363,"ĠM":364,"one":365,"qu":366,"ta":367,"se":368,"ist":369,"ig":370,"ici":371,"to":372,"io":373,"Ã¡s":374,"idad":375,"Ġper":376,"ĠL":377,"ur":378,"ones":379,"res":380,"ada":381,"Ġlo":382,"ia":383,"uc":384,"od":385,"iz":386,"lo":387,"Ãº":388,"ale":389,"ciÃ³n":390,"sc":391,"ier":392,"ex":393,"Ġac":394,"la":395,"ĠD":396,"Ġcu":397,"Ġco":398,"ica":399,"ando":400,"ib":401,"go":402,"nci":403,"Ġcomo":404,"emp":405,"ient":406,"Ġ(":407,"Ġ1":408,"ales":409,"Ġex":410,"ido":411,"ĠmÃ¡s":412,"et":413,"Ġ2":414,"ĠT":415,"ut":416,"ce":417,"orm":418,"us":419,"..":420,"Ġte":421,"era":422,"nd":423,"aj":424,"esp":425,"Ġpr":426,"uest":427,"ados":428,"ico":429,"ĠR":430,"Ġha":431,"ore":432,"da":433,"ran":434,"bre":435,"Ġser":436,"ant":437,"ĠB":438,"Ġle":439,"Ġr":440,"um":441,"Ġj":442,"int":443,"oc":444,"ed":445,"Ġso":446,"iÃ³n":447,"ras":448,"ĠG":449,"ero":450,"ores":451,"ĠN":452,"eb":453,"ura":454,"ĠI":455,"Ġtra":456,"ĠâĢ":457,"Ġpue":458,"ĠF":459,"Ġent":460,"Ġpre":461,"Ġcomp":462,"Ġap":463,"Ã¡n":464,"ios":465,"esc":466,"ros":467,"Ġcont":468,"gu":469,"so":470,"ot":471,"ud":472,"Ġesp":473,"ve":474,"iento":475,"iene":476,"mo":477,"amb":478,"imp":479,"Ġqu":480,"uer":481,"Ġsi":482,"ante":483,"ncia":484,"ect":485,"na":486,"eci":487,"ap":488,"bl":489,"no":490,"Ġint":491,"les":492,"ner":493,"ez":494,"âĢĿ":495,"ip":496,"ej":497,"00":498,"ida":499,"nc":500,"Ġsus":501,"uy":502,"ho":503,"aÃ±":504,"ĠH":505,"amos":506,"ece":507,"ct":508,"amente":509,"Ġot":510,"ĠV":511,"Ġar":512,"Ġeste":513,"Ġhac":514,"ns":515,"emos":516,"onal":517,"aciones":518,"ĠJ":519,"Ġhab":520,"ĠaÃ±":521,"Ã©n":522,"Ġrec":523,"Ġtod":524,"Ġpued":525,"ĠU":526,"ora":527,"ĠâĢľ":528,"Ġpe":529,"Ġimp":530,"entes":531,"per":532,"ĠEl":533,"ay":534,"gar":535,"Ġpero":536,"Ġam":537,"if":538,"Ġpuede":539,"odo":540,"ust":541,"ef":542,"adas":543,"enc":544,"Ġsin":545,"ere":546,"Ġcas":547,"unt":548,"Ġlle":549,"ara":550,"ario":551,"Ġson":552,"Ġver":553,"Ã©s":554,"ĠLa":555,"aliz":556,"Ġentre":557,"Ġpers":558,"ambi":559,"ult":560,"Ġpas":561,"Ġenc":562,"Ġpod":563,"El":564,"za":565,"ort":566,"gun":567,"ver":568,"dos":569,"ĠO":570,"Ġesta":571,"Ãºn":572,"nos":573,"Ġas":574,"Ġsobre":575,"ep":576,"Ġtiene":577,"ĠÂ":578,"las":579,"los":580,"ana":581,"eg":582,"Ġcar":583,"ento":584,"Ġesc":585,"Ġmis":586,"01":587,"icos":588,"Ġsol":589,"Ġman":590,"uch":591,"ina":592,"Ġob":593,"ĠEst":594,"Ġor":595,"ivo":596,"Ġpres":597,"ma":598,"deb":599,"form":600,"Ġemp":601,"ciones":602,"ev":603,"uev":604,"...":605,"dad":606,"icas":607,"Ġnos":608,"Ġcons":609,"Ġnuest":610,"ch":611,"ne":612,"ge":613,"Ġdeb":614,"uent":615,"Ġmi":616,"ond":617,"Ġact":618,"ual":619,"Ġad":620,"Ġya":621,"baj":622,"duc":623,"up":624,"rar":625,"mente":626,"cia":627,"Ġmuy":628,"ga":629,"Ġcre":630,"oy":631,"ambiÃ©n":632,"Ġform":633,"aba":634,"Ġtodo":635,"co":636,"ca":637,"eces":638,"ub":639,"erm":640,"ador":641,"Ġprim":642,"Ġpos":643,"lar":644,"ide":645,"Ġten":646,"Ġ3":647,"Ġ\"":648,"ano":649,"tos":650,"sd":651,"La":652,"Ġpa":653,"ont":654,"Ġsal":655,"esd":656,"ĠEn":657,"esde":658,"asta":659,"cul":660,"Ġfue":661,"ter":662,"Ġtu":663,"Ġab":664,"Ġinc":665,"Ġres":666,"ias":667,"Ġmej":668,"sa":669,"Ġinter":670,"ista":671,"Ġfin":672,"Ġperson":673,"ĠestÃ¡":674,"Ġpart":675,"ÃŃas":676,"Ġnuev":677,"pl":678,"Ġmar":679,"Ġcol":680,"Ġ201":681,"Ġtrabaj":682,"udi":683,"og":684,"Ġcor":685,"jo":686,"Ġprop":687,"idade":688,"Ġan":689,"idades":690,"ech":691,"ntes":692,"able":693,"dic":694,"cion":695,"ĠY":696,"ese":697,"ĠtambiÃ©n":698,"der":699,"Ġgran":700,"idos":701,"ener":702,"ĠaÃ±os":703,"iva":704,"arios":705,"rit":706,"Ġhay":707,"Ġmedi":708,"Ġof":709,"Ġti":710,"desde":711,"Ġsig":712,"Ġdesde":713,"iÃ³":714,"ino":715,"onde":716,"iendo":717,"rol":718,"Ġresp":719,"Ġcal":720,"Ġni":721,"tar":722,"amiento":723,"oci":724,"gra":725,"Ġve":726,"Ġcuando":727,"itu":728,"Ġhacer":729,"Ġrel":730,"Ġus":731,"Ġdos":732,"Ġcual":733,"av":734,"dar":735,"ion":736,"ÃŃt":737,"lan":738,"edi":739,"art":740,"ĠAl":741,"Ġparte":742,"dem":743,"sar":744,"Ġ-":745,"rib":746,"Ġtodos":747,"ĠCon":748,"ima":749,"ema":750,"gan":751,"En":752,").":753,"eros":754,"anto":755,"are":756,"ob":757,"Ã±o":758,"Ġrep":759,"Ġmun":760,"Ġcos":761,"ĠÃ©":762,"Ġhasta":763,"ÃŃs":764,"Ġdif":765,"ific":766,"ĠUn":767,"ces":768,"Ġreg":769,"Ġneces":770,"deci":771,"ing":772,"Ġcam":773,"rÃ¡":774,"Ġhan":775,"aron":776,"Ġmejor":777,"aje":778,"iones":779,"erc":780,"donde":781,"ten":782,"Ġmay":783,"Ġdeci":784,"Ġlu":785,"almente":786,"Ġem":787,"ipo":788,"Ġtiemp":789,"lam":790,"ito":791,"Ġ4":792,"Ġinform":793,"Ġdonde":794,"Ġmuch":795,"encia":796,"Ġop":797,"quier":798,"Ġalgun":799,"eres":800,"desp":801,"ecto":802,"ses":803,"Ġhace":804,"),":805,"uj":806,"desc":807,"Ġdesp":808,"Ġch":809,"Ġgra":810,"Ġproduc":811,"mit":812,"Ġfun":813,"Ġdesc":814,"Ġvez":815,"Ġbien":816,"adores":817,"ivos":818,"Ġlib":819,"entos":820,"Ġbue":821,"arÃ¡":822,"rec":823,"Ġporque":824,"me":825,"ndo":826,"Ġ5":827,"dÃŃa":828,"Ġmo":829,"Ġcap":830,"Ġcada":831,"ĠasÃŃ":832,"echo":833,"imo":834,"gr":835,"tas":836,"Ġsoci":837,"Ġcr":838,"omb":839,"Ġpol":840,"Ġej":841,"Ġrealiz":842,"oria":843,"ior":844,"Ġtiempo":845,"mos":846,"icio":847,"acional":848,"Ġsab":849,"Ġexp":850,"Ġdo":851,"zo":852,"ÃŃcul":853,"Ġcl":854,"icip":855,"Ġpo":856,"antes":857,"inci":858,"âĢ¦":859,"uel":860,"ita":861,"Ġserv":862,"ĠCom":863,"ine":864,"ven":865,"pe":866,"ndi":867,"uro":868,"arse":869,"ers":870,"iciÃ³n":871,"ĠdÃŃa":872,"Ġev":873,"endo":874,"ĠÂ¿":875,"end":876,"equ":877,"udad":878,"dej":879,"cio":880,"Ġdisp":881,"urante":882,"iente":883,"Ã©r":884,"ÃŃan":885,"unto":886,"Ġ19":887,"iudad":888,"Ġuno":889,"erv":890,"Ġaut":891,"Ġtran":892,"Ġoc":893,"entro":894,"ĠaÃ±o":895,"ern":896,"sos":897,"je":898,"ilidad":899,"Ġdej":900,"edad":901,"ill":902,"Ġvida":903,"Ġcuent":904,"tra":905,"oco":906,"Ġcontra":907,"ismo":908,"dep":909,"Ġinv":910,"Ġdic":911,"Ġant":912,"ible":913,"fe":914,"Ġseg":915,"Ġinst":916,"Ġespeci":917,"Ġgr":918,"Ġah":919,"Ġequ":920,"ĠSe":921,"Ãºl":922,"Ġllev":923,"Ġpla":924,"anos":925,"miento":926,"ona":927,"idas":928,"Ġforma":929,"gos":930,"orte":931,"iliz":932,"Ġempres":933,"du":934,"esar":935,"Ġi":936,"ĠW":937,"cias":938,"Ġincl":939,"ĠIn":940,"lic":941,"Ġfuer":942,"atos":943,"enta":944,"istas":945,"Ġgener":946,"ĠNo":947,"nes":948,"imos":949,"Ġmismo":950,"Ġpersonas":951,"Ġtr":952,"ug":953,"Ãºlt":954,"Ġra":955,"ÃŃn":956,"esarrol":957,"itar":958,"Ġro":959,"icios":960,"Ġaf":961,"Ġca":962,"Ġay":963,"Ġref":964,"Ãºbl":965,"det":966,"Ġlugar":967,"empre":968,"Ġotros":969,"ular":970,"uego":971,"eso":972,"Ġreci":973,"ucho":974,"âĢĿ,":975,"ĠLos":976,"Ġder":977,"Ġmat":978,"Ġese":979,"Ġmayor":980,"Ġdem":981,"Ġcomun":982,"Ġconst":983,"orta":984,"ĠCh":985,"ial":986,"Ġconf":987,"Ġmas":988,"Ġera":989,"usc":990,"Ġcer":991,"nas":992,"Ġdet":993,"esa":994,"siÃ³n":995,"Ġmom":996,"Ã¡t":997,"ĠMar":998,"min":999,"and":1000,"Ã³m":1001,"ĠEsp":1002,"ientos":1003,"Ġciudad":1004,"ag":1005,"ĠAr":1006,"incip":1007,"Ġmin":1008,"illa":1009,"Ġmundo":1010,"Ã±os":1011,"Ġ6":1012,"Ġdist":1013,"Ġpu":1014,"Ġmucho":1015,"Ġinf":1016,"ard":1017,"ost":1018,"Ġtanto":1019,"Est":1020,"ĠÃºlt":1021,"sf":1022,"Ġdebe":1023,"ĠK":1024,"ares":1025,"ord":1026,"âĢĿ.":1027,"pa":1028,"Ġencont":1029,"desarrol":1030,"Ġvis":1031,"Ġsolo":1032,"aÃ±a":1033,"def":1034,"Ã³lo":1035,"Ġsiempre":1036,"Ġprincip":1037,"Ġdesarrol":1038,"ombre":1039,"Ġw":1040,"unque":1041,"Ġsegu":1042,"durante":1043,"emente":1044,"ĠDe":1045,"Ġdurante":1046,"Ġdep":1047,"ato":1048,"Ġeso":1049,"acion":1050,"alidad":1051,"dest":1052,"Ġart":1053,"erÃŃa":1054,"Ġut":1055,"ens":1056,"Ġtener":1057,"Ġtrabajo":1058,"tes":1059,"Ġcab":1060,"vi":1061,"uÃ©s":1062,"Ġef":1063,"bar":1064,"Ġpel":1065,"ecciÃ³n":1066,"emas":1067,"ruc":1068,"Ġhist":1069,"amil":1070,"ĠPor":1071,"Ġcuenta":1072,"Ġdest":1073,"po":1074,"Ġquier":1075,"Ġestudi":1076,"vo":1077,"ĠÃ¡":1078,"Ġbaj":1079,"fes":1080,"Ġdef":1081,"ĠestÃ¡n":1082,"ncias":1083,"Ġles":1084,"Ġpl":1085,"Ġcaso":1086,"Ġsem":1087,"tor":1088,"Ġz":1089,"Ġotro":1090,"Ġcualquier":1091,"Ġtan":1092,"ceso":1093,"Ġmenos":1094,"Ġalgo":1095,"Ġimporta":1096,"Ġmuj":1097,"Ġvol":1098,"Ġpoco":1099,"jos":1100,"Ġllam":1101,"uesto":1102,"Ġsent":1103,"Ġval":1104,"Ġtras":1105,"ase":1106,"ĠPro":1107,"Ġpermit":1108,"Ġtom":1109,"Ġsido":1110,"rect":1111,"ate":1112,"Ġencuent":1113,"ĠRe":1114,"aria":1115,"Ġnuestro":1116,"Ġec":1117,"ru":1118,"Ġhaci":1119,"Ġexper":1120,"Ġdar":1121,"ancia":1122,"nf":1123,"Ġmomento":1124,"ĠLe":1125,"cel":1126,"par":1127,"uciÃ³n":1128,"Ġhor":1129,"Ġestos":1130,"Ġpodr":1131,"Ġutiliz":1132,"Ġgust":1133,"Ã±a":1134,"Ġsea":1135,"rend":1136,"Ġfal":1137,"ĠEs":1138,"olog":1139,"imiento":1140,"Ġsuper":1141,"dec":1142,"Ġpueden":1143,"he":1144,"Ġsist":1145,"ert":1146,"Ġbusc":1147,"ja":1148,"ierno":1149,"Ġyo":1150,"aban":1151,"ital":1152,"Ġ7":1153,"ivas":1154,"ace":1155,"Ġ200":1156,"jet":1157,"Ġproy":1158,"enf":1159,"ri":1160,"Ġtodas":1161,"Ġpresent":1162,"ĠlÃŃ":1163,"iste":1164,"omo":1165,"uras":1166,"Ġviv":1167,"Ġnuevo":1168,"Ġfamil":1169,"Ġnuestra":1170,"Ġ8":1171,"cios":1172,"Ġenf":1173,"ermin":1174,"ice":1175,"all":1176,"ivers":1177,"gen":1178,"Ġprobl":1179,"ÃŃst":1180,"Ġinte":1181,"eras":1182,"Ġhum":1183,"Ã©c":1184,"ĠQ":1185,"isiÃ³n":1186,"Ġorgan":1187,"embre":1188,"ĠSi":1189,"ĠinformaciÃ³n":1190,"Ãºs":1191,"icaciÃ³n":1192,"Ġtipo":1193,"Ġdec":1194,"Ġat":1195,"ba":1196,"ĠpÃºbl":1197,"Los":1198,"ĠCar":1199,"Ġmal":1200,"ĠhabÃŃa":1201,"ĠpolÃŃt":1202,"pt":1203,"Ġestar":1204,"Ġagu":1205,"Ġmanera":1206,"Ġactiv":1207,"uso":1208,"Ã³mo":1209,"Ġantes":1210,"che":1211,"ast":1212,"das":1213,"dÃŃas":1214,"quel":1215,"anas":1216,"ĠdÃŃas":1217,"Ġahora":1218,"Ġesto":1219,"Ġprofes":1220,"Ġpubl":1221,"vÃ©s":1222,"Ġconc":1223,"Ġide":1224,"ola":1225,"Ġotra":1226,"Ġne":1227,"Ġprimera":1228,"Ġtres":1229,"uesta":1230,"Ġtienen":1231,"Ġhecho":1232,"ĠdespuÃ©s":1233,"Ġcomple":1234,"omin":1235,"Ġ10":1236,"Ġsub":1237,"ĠpaÃŃs":1238,"cal":1239,"Ġdecir":1240,"ĠsÃ³lo":1241,"Ġcan":1242,"Ġir":1243,"ieron":1244,"ĠquÃ©":1245,"Ġ,":1246,"Ġgrup":1247,"ĠtravÃ©s":1248,"Ġesa":1249,"ĠsÃŃ":1250,"Ġgrand":1251,"Ġ9":1252,"Ġsegun":1253,"Ġpoder":1254,"Ġrev":1255,"cil":1256,"iel":1257,"Ġparticip":1258,"ies":1259,"nz":1260,"Ġig":1261,"erci":1262,"Ġapar":1263,"rim":1264,"quÃŃ":1265,"Ġamb":1266,"Ġav":1267,"Ġvar":1268,"Ġellos":1269,"Ġ.":1270,"ES":1271,"Ġgrande":1272,"ivel":1273,"Ġunos":1274,"ectos":1275,"Ġpens":1276,"Ã³g":1277,"ono":1278,"Ġotras":1279,"Ġresult":1280,"ons":1281,"Ġpeque":1282,"ĠLas":1283,"itos":1284,"obierno":1285,"gres":1286,"Ã³r":1287,"atur":1288,"Ġgu":1289,"Ġnada":1290,"!!":1291,"Ġhoy":1292,"Ġaunque":1293,"Ġconoci":1294,"Ġcorre":1295,"Ġbar":1296,"Ġrest":1297,"Ġdifer":1298,"ientes":1299,"az":1300,"rado":1301,"mas":1302,"ientras":1303,"anz":1304,"ata":1305,"estig":1306,"rig":1307,"Ġhe":1308,"ĠÃ":1309,"Ġda":1310,"Ġaquel":1311,"Ġprogra":1312,"Ġsitu":1313,"Ġva":1314,"Ġcamb":1315,"Ġpal":1316,"Ġtend":1317,"Ġcasa":1318,"Ġrecib":1319,"CI":1320,"ativa":1321,"ĠInt":1322,"mp":1323,"Ġdisc":1324,"Ġcontin":1325,"Ġpersonal":1326,"adr":1327,"ER":1328,"Ġter":1329,"Ġtel":1330,"Ã¡ct":1331,"\",":1332,"Ġaplic":1333,"ĠÃ©l":1334,"ulo":1335,"ĠseÃ±":1336,"Ġnivel":1337,"Ġk":1338,"Ġsec":1339,"Ġsino":1340,"act":1341,"Ġcier":1342,"iencia":1343,"ded":1344,"dese":1345,"oto":1346,"Ġestado":1347,"Ġquien":1348,"Ġtoda":1349,"izaciÃ³n":1350,"Ġpon":1351,"Ġestas":1352,"Ġapro":1353,"Ġsue":1354,"inas":1355,"Ġprimer":1356,"eron":1357,"Ġecon":1358,"Ġtemp":1359,"emÃ¡s":1360,"idente":1361,"ĠDE":1362,"âĢľ":1363,"Ġedi":1364,"Ġmater":1365,"ables":1366,"ÃŃo":1367,"ĠademÃ¡s":1368,"ira":1369,"Ġcosas":1370,"Ġdese":1371,"Ã¡l":1372,"entar":1373,"Ġmill":1374,"000":1375,"Ġsigu":1376,"duci":1377,"ite":1378,"Ġmuchos":1379,"Ġante":1380,"Ġcel":1381,"Ġtal":1382,"vert":1383,"ena":1384,"echos":1385,"Ġsup":1386,"Ġconsid":1387,"Ġdise":1388,"ĠÃºn":1389,"ĠserÃ¡":1390,"ha":1391,"ile":1392,"Ġexpl":1393,"ĠX":1394,"Ġsistema":1395,"Ġgan":1396,"uridad":1397,"sas":1398,"Ġcur":1399,"erencia":1400,"minist":1401,"ĠPero":1402,"ĠAs":1403,"Ġpasado":1404,"oca":1405,"ĠZ":1406,"Por":1407,"ecer":1408,"Ġmil":1409,"uye":1410,"Ġobjet":1411,"ologÃŃa":1412,"Ġejemp":1413,"gre":1414,"adora":1415,"Ġverdad":1416,"Ġhi":1417,"otros":1418,"AR":1419,"Ġlleg":1420,"Ġet":1421,"datos":1422,"uerdo":1423,"anza":1424,"ĠPara":1425,"Ġequipo":1426,"atro":1427,"ÃŃf":1428,"osa":1429,"Ã¡m":1430,"Ã©t":1431,"OS":1432,"Ġdirect":1433,"Ġer":1434,"omp":1435,"por":1436,"Ġconte":1437,"Ġmedio":1438,"ĠAm":1439,"Ġplan":1440,"Ġdatos":1441,"ĠSu":1442,"Ã©cn":1443,"Ġimportante":1444,"uto":1445,"Ġalgunos":1446,"fici":1447,"Ġos":1448,"Ãºm":1449,"ocer":1450,"Ġella":1451,"Ġtot":1452,"Ġautor":1453,"Ġred":1454,"Ġconv":1455,"Ġlar":1456,"ĠSan":1457,"Ġmerc":1458,"ĠSal":1459,"ĠâĢĵ":1460,"Ġhistoria":1461,"Ġprov":1462,"Ġconse":1463,"cep":1464,"Ġamig":1465,"icia":1466,"\".":1467,"Ġfu":1468,"Ġembar":1469,"uros":1470,"echa":1471,"EN":1472,"ĠÂ¡":1473,"Ġencontrar":1474,"Ã¡g":1475,"Ġrepres":1476,"Ġempresa":1477,"ĠEspaÃ±a":1478,"Ġquiere":1479,"und":1480,"Ġtrans":1481,"Ġweb":1482,"ĠcÃ³mo":1483,"Ġmad":1484,"abor":1485,"Ġnueva":1486,"untos":1487,"Ġnatur":1488,"No":1489,"Ġperf":1490,"irm":1491,"ÃŃculo":1492,"Ġ20":1493,"Ġ15":1494,"Ġcat":1495,"Ġnuestros":1496,"icar":1497,"Ġcalidad":1498,"Ġmillones":1499,"Ġmientras":1500,"Ġgente":1501,"icamente":1502,"eta":1503,"inos":1504,"iar":1505,"Ġfinal":1506,"icado":1507,"Ġhoras":1508,"Ġcant":1509,"Ġhacia":1510,"Ġmod":1511,"Ġayud":1512,"Ġtrat":1513,"Ġmante":1514,"Ġmet":1515,"ional":1516,"ON":1517,"ell":1518,"uda":1519,"Ġmot":1520,"Ġbe":1521,"Ġveces":1522,"din":1523,"ecn":1524,"isto":1525,"Ġofre":1526,"Â»":1527,"vid":1528,"dentro":1529,"nse":1530,"Ġintern":1531,"Ġjue":1532,"AS":1533,"Ġdiferentes":1534,"Ġactu":1535,"Ġdice":1536,"Ġesper":1537,"rut":1538,"tura":1539,"Ġvia":1540,"Ġestaba":1541,"ret":1542,"Ġcult":1543,"Ġdentro":1544,"ral":1545,"Ġdijo":1546,"gas":1547,"Ġid":1548,"Ġservicios":1549,"iso":1550,"Ġsex":1551,"igu":1552,"Ġmuchas":1553,"Ġinici":1554,"acio":1555,"Ġllegar":1556,"zas":1557,"amp":1558,"olÃ³g":1559,"Ã³x":1560,"Ġuso":1561,"ĠCo":1562,"rom":1563,"Ġju":1564,"AN":1565,"Ġinvestig":1566,"Ġpersona":1567,"Ġmisma":1568,"Ġmed":1569,"man":1570,"raciÃ³n":1571,"Ġima":1572,"Ġagua":1573,"Ġello":1574,"Ġnorm":1575,"ok":1576,"Ġembargo":1577,"eo":1578,"ĠcompaÃ±":1579,"abl":1580,"ĠnÃºm":1581,"Ġ12":1582,"Ã¡nd":1583,"Ġservicio":1584,"aÃ±o":1585,"âĢĻ":1586,"Si":1587,"ves":1588,"rada":1589,"ĠsegÃºn":1590,"gunt":1591,"ativo":1592,"ctor":1593,"Ġmen":1594,"Ġ18":1595,"Ġgrupo":1596,"ĠaquÃŃ":1597,"orio":1598,"ose":1599,"Ġfre":1600,"itas":1601,"Ġpues":1602,"Ġcent":1603,"Ġpat":1604,"Ġtus":1605,"ĠMe":1606,"anta":1607,"Ġcontinu":1608,"demÃ¡s":1609,"Ġmujeres":1610,"Ġma":1611,"illo":1612,"Ġfuncion":1613,"Ġfav":1614,"ĠBar":1615,"acidad":1616,"Ġdisf":1617,"rat":1618,"Ġactual":1619,"uela":1620,"ĠLo":1621,"seg":1622,"lor":1623,"Ġind":1624,"Ġusu":1625,"Ġsocial":1626,"Ġelect":1627,"Ġproceso":1628,"Ġigual":1629,"Ġlab":1630,"ortun":1631,"Ġproductos":1632,"Ġorig":1633,"Ġposib":1634,"ĠmÃ¡":1635,"Ġejemplo":1636,"ienes":1637,"ala":1638,"Ġclas":1639,"bol":1640,"Ġhabit":1641,"Ġcuer":1642,"Ġpie":1643,"Ġley":1644,"Ġven":1645,"Ġsit":1646,"Ġban":1647,"Ġpad":1648,"ya":1649,"rem":1650,"com":1651,"Ġgrat":1652,"br":1653,"Ġhaber":1654,"Ġqued":1655,"ĠtÃ©cn":1656,"Ġed":1657,"Ġjug":1658,"unca":1659,"Ġgeneral":1660,"osiciÃ³n":1661,"uando":1662,"bo":1663,"ble":1664,"Ġgrandes":1665,"ilo":1666,"abilidad":1667,"Ġluego":1668,"Ġindi":1669,"ach":1670,"Ġpregunt":1671,"ĠPar":1672,"AL":1673,"Ġdin":1674,"acto":1675,"inar":1676,"Ġparece":1677,"Ġposible":1678,"Las":1679,"Ġfueron":1680,"Ġdesarrollo":1681,"cional":1682,"Ġfi":1683,"Ġdirec":1684,"ental":1685,"ula":1686,"cl":1687,"ĠmÃ©":1688,"ĠCol":1689,"Ġproyecto":1690,"iedad":1691,"ced":1692,"Ġneg":1693,"oso":1694,"Ġdoc":1695,"va":1696,"Ġagr":1697,"Ġoper":1698,"Â¿":1699,"rÃŃa":1700,"onces":1701,"Ġfavor":1702,"Ġpunto":1703,"rÃ³":1704,"ĠTe":1705,"ĠÂ«":1706,"Ġquer":1707,"Ġleg":1708,"ĠprÃ³x":1709,"adrid":1710,"ĠfÃ¡":1711,"tenciÃ³n":1712,"Ġanter":1713,"Ġsan":1714,"ng":1715,"OR":1716,"Ġclar":1717,"ÂŃ":1718,"Ġofici":1719,"Ġnosotros":1720,"Ġbajo":1721,"Ġconsider":1722,"izo":1723,"Ġcasi":1724,"unci":1725,"Ġconocer":1726,"Ġsac":1727,"Ġcondi":1728,"Ġ...":1729,"Ġtrad":1730,"Ġsalud":1731,"zÃ³n":1732,"ire":1733,"Ġrecon":1734,"arÃ¡n":1735,"Ġprev":1736,"Ġsel":1737,"Ġnov":1738,"Ġsemana":1739,"Ġeduc":1740,"Ġgest":1741,"Ġbuena":1742,"ĠJu":1743,"ĠNacional":1744,"Ġher":1745,"Ġherm":1746,"Ġmuer":1747,"ajes":1748,"Ġext":1749,"leg":1750,"ĠEx":1751,"Ġvuel":1752,"Ġapoy":1753,"Ġvalor":1754,"Se":1755,"Ġnombre":1756,"Ġespecial":1757,"Ġgracias":1758,"Ġmodel":1759,"Ġ0":1760,"Ġmejores":1761,"Ġacuerdo":1762,"ela":1763,"ĠniÃ±os":1764,"Ġge":1765,"ĠMÃ©":1766,"ipos":1767,"Ġpalab":1768,"ĠeconÃ³m":1769,"soci":1770,"cas":1771,"Ġord":1772,"anci":1773,"ĠOr":1774,"imas":1775,"ram":1776,"Ġorganiz":1777,"Con":1778,"nder":1779,"Ġabr":1780,"rÃ¡f":1781,"enz":1782,"uestra":1783,"vers":1784,"Ġempresas":1785,"Ġmov":1786,"op":1787,"Ġexperiencia":1788,"Ġextra":1789,"Ġampl":1790,"Ġinm":1791,"isis":1792,"Ġpermite":1793,"ĠUnivers":1794,"Ġnego":1795,"Ġlado":1796,"utos":1797,"Ġall":1798,"Ġ|":1799,"acter":1800,"Ġrespons":1801,"arÃŃa":1802,"Ġzona":1803,"ĠpÃ¡g":1804,"Ġconten":1805,"Ġceleb":1806,"ade":1807,"Ġhombre":1808,"ienda":1809,"Ġcum":1810,"ĠGu":1811,"domin":1812,"Ġdistint":1813,"Ġorde":1814,"Ġseguridad":1815,"ĠnÃºmero":1816,"Ġtecn":1817,"ĠSin":1818,"rÃ³n":1819,"Ġinstal":1820,"ombres":1821,"Ġaum":1822,"otel":1823,"Ġblo":1824,"Al":1825,"otos":1826,"stitu":1827,"iera":1828,"emb":1829,"Ġgar":1830,"Ġfut":1831,"Ġsimp":1832,"Ġmeses":1833,"orn":1834,"cos":1835,"Ġcaus":1836,"Ġlibro":1837,"ĠespaÃ±":1838,"Ġcomb":1839,"Ġbuen":1840,"Ġrecom":1841,"lu":1842,"Es":1843,"Ġbase":1844,"sta":1845,"Ã¡p":1846,"arlo":1847,"xico":1848,"uales":1849,"Ġdirig":1850,"Ġorden":1851,"Ġexpres":1852,"ĠUna":1853,"ĠvÃŃ":1854,"Ġnunca":1855,"ificaciÃ³n":1856,"Ġded":1857,"ĠEste":1858,"Ġfamilia":1859,"Ġfuera":1860,"Ġvent":1861,"Ġtenemos":1862,"oral":1863,"Ġbr":1864,"Ã¡b":1865,"erio":1866,"Ġcir":1867,"arde":1868,"Ġpuedes":1869,"Ġhemos":1870,"Ġrecur":1871,"cha":1872,"Ġincluso":1873,"Ġescrit":1874,"Ġaseg":1875,"Para":1876,"Ġnoche":1877,"car":1878,"ĠlÃŃne":1879,"entaciÃ³n":1880,"Ġ11":1881,"ren":1882,"Ġjuego":1883,"Ġtengo":1884,"AD":1885,"Ġret":1886,"Ġalc":1887,"ĠFran":1888,"alla":1889,"teg":1890,"Ġloc":1891,"gent":1892,"Ġnot":1893,"Ġmujer":1894,"Ġcambi":1895,"ĠDios":1896,"ĠprÃ¡ct":1897,"ĠDi":1898,"Ġplant":1899,"Ġ#":1900,"ĠMadrid":1901,"iles":1902,"Ġunas":1903,"Ġcentro":1904,"vil":1905,"Ġmercado":1906,"Ġalim":1907,"Ġemple":1908,"ĠaÃºn":1909,"con":1910,"ativas":1911,"Ġrealizar":1912,"Ġpap":1913,"irÃ¡":1914,"Ġ30":1915,"Ġben":1916,"Ġjust":1917,"Ġdestac":1918,"ĠrelaciÃ³n":1919,"IC":1920,"Ġcambio":1921,"endi":1922,"rea":1923,"Ġhora":1924,"Ġmes":1925,"Ġalguna":1926,"Ġsaber":1927,"Ġproblemas":1928,"ique":1929,"Ġdispon":1930,"Ġcumpl":1931,"iado":1932,"Ġpriv":1933,"Ġcolor":1934,"Ġ[":1935,"Ġpresidente":1936,"Ġsign":1937,"Ġtermin":1938,"itud":1939,"oj":1940,"usted":1941,"201":1942,"ĠMun":1943,"Ġanim":1944,"ĠEstado":1945,"Ġ/":1946,"Ġamor":1947,"Ġjunto":1948,"ric":1949,"Ġinteres":1950,"oluciÃ³n":1951,"onio":1952,"Ġalgunas":1953,"Ġusted":1954,"atura":1955,"Ġofrece":1956,"serv":1957,"Ġetc":1958,"Ġcuerpo":1959,"ĠIntern":1960,"Ġon":1961,"Ġtema":1962,"Ġoportun":1963,"Ġalg":1964,"Ġcoment":1965,"Ġtrata":1966,"cimiento":1967,"Ġconsum":1968,"igo":1969,"cina":1970,"ama":1971,"Ġprograma":1972,"Qu":1973,"ĠsituaciÃ³n":1974,"Ġfoto":1975,"graf":1976,"usiÃ³n":1977,"illas":1978,"ierra":1979,"Ġdeber":1980,"Ġregist":1981,"ĠpelÃŃcul":1982,"Ġol":1983,"eric":1984,"aja":1985,"Ġmont":1986,"Ġfund":1987,"oma":1988,"Ġdomin":1989,"blo":1990,"Ġcuatro":1991,"Ġpartir":1992,"Ġpuer":1993,"Ġcamp":1994,"Ġsabe":1995,"iales":1996,"Ġpodemos":1997,"inaciÃ³n":1998,"Ġtur":1999,"Ġfil":2000,"Ġexiste":2001,"ĠEuro":2002,"rip":2003,"Ġ2018":2004,"ustr":2005,"Ġprecio":2006,"Ġnacional":2007,"Ġcontrol":2008,"Ġponer":2009,"ĠMan":2010,"Ġproblema":2011,"ĠMÃ©xico":2012,"Ġdefin":2013,"orp":2014,"Ġocas":2015,"Ġescrib":2016,"eza":2017,"oz":2018,"ĠpÃºblico":2019,"Ġcin":2020,"use":2021,"Ġsolici":2022,"Ġcomenz":2023,"Ġfrente":2024,"izar":2025,"Ġvarios":2026,"Ġgobierno":2027,"Â¡":2028,"Ġconsegu":2029,"irt":2030,"Ġasp":2031,"Ġindic":2032,"esta":2033,"Ġeleg":2034,"nov":2035,"Ġprepar":2036,"ĠÃºltimo":2037,"ete":2038,"ber":2039,"blig":2040,"Ġins":2041,"alle":2042,"Ġsiendo":2043,"Ġpaso":2044,"Ġseguir":2045,"ĠQu":2046,"Ã©is":2047,"Ġbenef":2048,"Ġdocum":2049,"Ġrealidad":2050,"Ġlargo":2051,"Ġentonces":2052,"Ġencuentra":2053,"Ġdisfrut":2054,"Ġsociedad":2055,"Ġ14":2056,"19":2057,"Ġdig":2058,"ea":2059,"ubre":2060,"amento":2061,"Ġsigue":2062,"Ġcaracter":2063,"Ġmano":2064,"gue":2065,"Ġobra":2066,"Ġvide":2067,"ĠLu":2068,"ĠrÃ¡p":2069,"istencia":2070,".-":2071,"ibles":2072,"Ġbasta":2073,"Ġ16":2074,"ik":2075,"ĠAc":2076,"Ġestable":2077,"ulta":2078,"ĠfÃ¡cil":2079,"rÃ¡s":2080,"IN":2081,"ĠJos":2082,"Âº":2083,"Ġatra":2084,"De":2085,"Ġdis":2086,"energ":2087,"dial":2088,"Ġsur":2089,"Ġminutos":2090,"ÃŃses":2091,"Ġactividades":2092,"ecu":2093,"asa":2094,"Ġobjetivo":2095,"ĠAd":2096,"Ġadminist":2097,"cid":2098,"Ġserie":2099,"Ġcomerci":2100,"fr":2101,"iano":2102,"Ġmunicip":2103,"Ġ13":2104,"Ġ'":2105,"Ġterc":2106,"orÃŃa":2107,"Ġlog":2108,"alu":2109,"Ġoblig":2110,"Ġvan":2111,"ĠEsc":2112,"Ġpartido":2113,"irse":2114,"ime":2115,"ĠtenÃŃa":2116,"ĠAdemÃ¡s":2117,"amientos":2118,"Ġsector":2119,"Ġtor":2120,"Ġenerg":2121,"Ġident":2122,"ivamente":2123,"ĠatenciÃ³n":2124,"ĠâĢĺ":2125,"ĠEstados":2126,"Ġdinero":2127,"ele":2128,"ĠAnd":2129,"Ġ25":2130,"Ġsociales":2131,"ĠGobierno":2132,"Ġsim":2133,"ĠpodrÃŃa":2134,"Ġcorresp":2135,"Ġespacio":2136,"Ġempez":2137,"len":2138,"Ġtarde":2139,"ĠpolÃŃtica":2140,"osit":2141,"uestos":2142,"Ãĥ":2143,"Ġprue":2144,"esf":2145,"Ġpuntos":2146,"ĠmÃºs":2147,"omÃŃa":2148,"ural":2149,"alizaciÃ³n":2150,"Ġprecios":2151,"rera":2152,"Ġderecho":2153,"Ġtotal":2154,"nv":2155,"ĠEsta":2156,"lex":2157,"Ġreal":2158,"gado":2159,"Ġrecor":2160,"omos":2161,"esos":2162,"ich":2163,"Ġhub":2164,"Ã±as":2165,"ĠPue":2166,"ĠpaÃŃses":2167,"Ġhizo":2168,"Ġcorr":2169,"uencia":2170,"rucciÃ³n":2171,"Ġgarant":2172,"ĠMin":2173,"gl":2174,"rÃ¡n":2175,"Ġsentido":2176,"Ġocur":2177,"mientos":2178,"ï¿":2179,"Ġmediante":2180,"....":2181,"ĠÃģ":2182,"ĠartÃŃculo":2183,"Ġsens":2184,"ï¿½":2185,"Ġmens":2186,"Ġblan":2187,"Ġfalta":2188,"Ġclase":2189,"Ġprot":2190,"ondi":2191,"Ġsitio":2192,"osp":2193,"eder":2194,"zos":2195,"Ġub":2196,"Ġsiguiente":2197,"ionales":2198,"Ġdu":2199,"Ġsegundo":2200,"Ġ17":2201,"Ġfor":2202,"Un":2203,"ĠmayorÃŃa":2204,"Ġalta":2205,"Ġdetermin":2206,"Ġenferm":2207,"ĠalgÃºn":2208,"Ġtar":2209,"Ġcompart":2210,"ĠPol":2211,"Ġayuda":2212,"ense":2213,"Ġcapacidad":2214,"Ġreun":2215,"ulos":2216,"onas":2217,"ĠAnt":2218,"Ġnuevos":2219,"Ġand":2220,"Ġvi":2221,"Ġmir":2222,"ĠseÃ±al":2223,"Ġprom":2224,"ĠAp":2225,"Ġfinanci":2226,"ĠdiseÃ±o":2227,"ĠUniversidad":2228,"Ġmodo":2229,"Ġtex":2230,"inal":2231,"Ġpreci":2232,"Ġur":2233,"Ġinstitu":2234,"iores":2235,"Ãºt":2236,"af":2237,"Ġtransp":2238,"arte":2239,"ĠUnidos":2240,"acionales":2241,"Ġmol":2242,"ducir":2243,"Ġbol":2244,"Ãĵ":2245,"ame":2246,"rio":2247,"Ġacomp":2248,"Ġprof":2249,"ulares":2250,"Ġgas":2251,"Ġil":2252,"Ġente":2253,"dado":2254,"Ġnuevas":2255,"Ġalum":2256,"render":2257,"Ġto":2258,"Este":2259,"Ġquienes":2260,"rum":2261,"genes":2262,"ĠEnt":2263,"Ġcasos":2264,"Ġperio":2265,"ĠJuan":2266,"Ġauto":2267,"Ġdiver":2268,"Ġactividad":2269,"Ġcondiciones":2270,"iciones":2271,"Ã³l":2272,"Ġidea":2273,"ĠGener":2274,"Ġcreo":2275,"ian":2276,"Ġimport":2277,"Ġrepresent":2278,"taciÃ³n":2279,"Ġestamos":2280,"Ġpobl":2281,"Ġ:":2282,"line":2283,"icidad":2284,"aÃ±ana":2285,"anda":2286,"Ġconj":2287,"Ġpasar":2288,"Ã¡r":2289,"Ġfaci":2290,"ĠAn":2291,"Ġesos":2292,"ĠmÃ¡x":2293,"Ġelem":2294,"ĠCont":2295,"iere":2296,"ĠMa":2297,"Ġcuanto":2298,"Ġasegur":2299,"ĠSoci":2300,"Ġdici":2301,"orada":2302,"Ġviaje":2303,"ĠTambiÃ©n":2304,"Ġrespecto":2305,"Ġ2017":2306,"Ġsegunda":2307,"Ġderechos":2308,"Ġresultados":2309,"Ġproducto":2310,"Ġnecesario":2311,"Ġu":2312,"utas":2313,"alo":2314,"Ġcerca":2315,"Ġefect":2316,"Ġdejar":2317,"ingun":2318,"Ġpresente":2319,"gon":2320,"Ġhombres":2321,"Ġdeclar":2322,"dan":2323,"Ġpost":2324,"Ġprob":2325,"Ġacab":2326,"Ġbas":2327,"ulio":2328,"iza":2329,"rop":2330,"Ġ100":2331,"ilar":2332,"yo":2333,"uestas":2334,"ĠMo":2335,"ĠJe":2336,"Ġ24":2337,"Ġviene":2338,"II":2339,"Ġamigos":2340,"nto":2341,"ĠlÃŃnea":2342,"env":2343,"Ġrelacion":2344,"isa":2345,"Ġbastante":2346,"mar":2347,"eja":2348,"Ġtienes":2349,"Ġgen":2350,"guien":2351,"unta":2352,"ign":2353,"Ġprincipal":2354,"dif":2355,"uraciÃ³n":2356,"Ġmost":2357,"Ġhaya":2358,"Ġadel":2359,"Ġestu":2360,"Ġhacen":2361,"abr":2362,"euros":2363,"Ã¡tica":2364,"Una":2365,"ÃŃamos":2366,"ativos":2367,"10":2368,"30":2369,"Ġdicho":2370,"ecut":2371,"Ã¡ndo":2372,"Ġestudio":2373,"adie":2374,"ncial":2375,"ave":2376,"Ġrad":2377,"Ġimagen":2378,"uta":2379,"tado":2380,"Ġnuestras":2381,"Ġeuros":2382,"Ġestoy":2383,"Ġluch":2384,"Ġpuesto":2385,"Ġim":2386,"TA":2387,"Ġpueblo":2388,"ĠJosÃ©":2389,"Ġprest":2390,"ĠYo":2391,"ÃŃsticas":2392,"Ġenv":2393,"Ġacep":2394,"alizar":2395,"ÃŃtulo":2396,"ĠSant":2397,"Ġllevar":2398,"Ġproces":2399,"ĠPer":2400,"Ġclaro":2401,"Ġapre":2402,"Ġries":2403,"Ġclientes":2404,"Ġcuest":2405,"IS":2406,"ÃŃculos":2407,"Ġdiv":2408,"ividad":2409,"Ġcomprom":2410,"Ġale":2411,"una":2412,"udo":2413,"ingÃºn":2414,"ilidades":2415,"Ġimpres":2416,"ron":2417,"rero":2418,"Ġmiemb":2419,"Ġacceso":2420,"Ġconvert":2421,"Ġescuch":2422,"ifica":2423,"Ġedad":2424,"Ġlibre":2425,"ĠpÃ¡gina":2426,"ĠGran":2427,"ĠmaÃ±ana":2428,"entemente":2429,"Ġense":2430,"ĠespaÃ±ol":2431,"iana":2432,"ance":2433,"siones":2434,"adamente":2435,"Ġejerci":2436,"Ġ199":2437,"Ġmodelo":2438,"Ġvac":2439,"Ġanterior":2440,"ondo":2441,"Ġport":2442,"Ġofrec":2443,"Ġpropio":2444,"ĠacompaÃ±":2445,"ĠÃºnico":2446,"Ġningun":2447,"ques":2448,"ĠCr":2449,"Ġfel":2450,"eccion":2451,"Ġcierto":2452,"zar":2453,"ĠReg":2454,"Ã©rica":2455,"ome":2456,"Ã¡st":2457,"Ġpint":2458,"Ġvarias":2459,"arias":2460,"Ġjo":2461,"Ġprimero":2462,"Ġdeben":2463,"Ġprem":2464,"Ġases":2465,"Ġgusta":2466,"Ġado":2467,"Ġcinco":2468,"Ġprofesional":2469,"ack":2470,"Ġfacil":2471,"Ġinclu":2472,"ĠSol":2473,"ĠfÃŃs":2474,"ĠCan":2475,"Ġreconoci":2476,"esas":2477,"ror":2478,"Ġusuarios":2479,"ĠningÃºn":2480,"Ġcantidad":2481,"Ġhablar":2482,"ĠCor":2483,"lemente":2484,"Ġsorp":2485,"hora":2486,"ude":2487,"cer":2488,"tener":2489,"Ġgol":2490,"Ġx":2491,"ĠmÃºsica":2492,"Ġcapital":2493,"dico":2494,"Ġcamino":2495,"ĠComo":2496,"Ġpop":2497,"uper":2498,"Ġencar":2499,"ĠSeg":2500,"ste":2501,"ramient":2502,"Ġcolabor":2503,"Ġpueda":2504,"Ġellas":2505,"Ġluz":2506,"cedi":2507,"ĠproducciÃ³n":2508,"ume":2509,"ctubre":2510,"Ġpalabras":2511,"ĠVer":2512,"ĠLey":2513,"rent":2514,"Ġmedios":2515,"ncil":2516,"iembre":2517,"Ġfran":2518,"Ġpaci":2519,"Ġvista":2520,"ĠÃºltimos":2521,"Ġdescub":2522,"cu":2523,"viembre":2524,"iÃ©n":2525,"Ġhaciendo":2526,"ww":2527,"Ġobserv":2528,"reto":2529,"Ġbeb":2530,"Ġgratis":2531,"be":2532,"ĠdemÃ¡s":2533,"mite":2534,"lem":2535,"Ġmarca":2536,"Ġbueno":2537,"iter":2538,"nsa":2539,"Ġesf":2540,"onos":2541,"Ġcosa":2542,"Ġafect":2543,"dia":2544,"20":2545,"Ġcabo":2546,"icaciones":2547,"Ġmanif":2548,"Ġmult":2549,"Ġcrear":2550,"Ġhabl":2551,"ĠAsÃŃ":2552,"Ġpartic":2553,"Ġtomar":2554,"Ġ50":2555,"Ġalguien":2556,"Ġagrad":2557,"Ġmag":2558,"forma":2559,"greso":2560,"dir":2561,"Ġcomer":2562,"ĠRep":2563,"Ġunivers":2564,"Ġpesar":2565,"icÃ³":2566,"Ã©f":2567,"Ġpote":2568,"Ġexter":2569,"apar":2570,"ĠPres":2571,"ÃĵN":2572,"Ġlocal":2573,"Ġlimp":2574,"Ġrecomend":2575,"Ġprese":2576,"ĠinvestigaciÃ³n":2577,"gentina":2578,"isl":2579,"Ġpropia":2580,"Ġpan":2581,"Ġblog":2582,"Ġlanz":2583,"Ġlect":2584,"Ġalto":2585,"ĠIs":2586,"venes":2587,"Ġpropor":2588,"Ġ2016":2589,"ĠCat":2590,"TE":2591,"Ġhotel":2592,"Ġcla":2593,"Ġperman":2594,"âĢĶ":2595,"Ġcuales":2596,"tend":2597,"Ġsencil":2598,"Ġabier":2599,"Ġpapel":2600,"Ġlim":2601,"Ġfecha":2602,"Ġmantener":2603,"Ġpromo":2604,"ecciones":2605,"ĠCl":2606,"enci":2607,"dÃ³":2608,"Ġvel":2609,"Ġfe":2610,"Ġag":2611,"ĠdifÃŃ":2612,"ĠâĢĶ":2613,"Ġrecursos":2614,"Ġocup":2615,"Ġconduc":2616,"Ġdebido":2617,"Ġresultado":2618,"urso":2619,"ĠmÃ³":2620,"Ġadecu":2621,"isf":2622,"uerra":2623,"Ġpiel":2624,"ĠGeneral":2625,"etas":2626,"Ġresto":2627,"Ġevitar":2628,"Ġmon":2629,"Ġduda":2630,"icion":2631,"Ã¡tico":2632,"Ġdescar":2633,"isterio":2634,"ID":2635,"Ġconci":2636,"ĠmÃŃ":2637,"Ġherramient":2638,"Ġcalle":2639,"Ġacciones":2640,"Ã¼":2641,"ĠserÃŃa":2642,"ĠÃºltima":2643,"ificar":2644,"Ġfuturo":2645,"Ġaz":2646,"ĠBe":2647,"quil":2648,"Ġabs":2649,"cido":2650,"Ġtit":2651,"ival":2652,"Ġalter":2653,"ft":2654,"ĠelectrÃ³n":2655,"jas":2656,"icias":2657,"Esta":2658,"Ġfra":2659,"Ġsoy":2660,"rez":2661,"ĠQue":2662,"Ġestilo":2663,"Ġvolver":2664,"Ġnadie":2665,"ocup":2666,"Ġespect":2667,"Ġresta":2668,"ĠÃ©x":2669,"ĠPe":2670,"ĠCuando":2671,"Ġentrada":2672,"ĠGar":2673,"Ġseguro":2674,"Ġprofesionales":2675,"ront":2676,"ĠaplicaciÃ³n":2677,"Ġpoc":2678,"Ġconseguir":2679,"don":2680,"Ġib":2681,"eles":2682,"ÃŃm":2683,"ĠPre":2684,"Ġenfermedad":2685,"acer":2686,"ecta":2687,"ĠpelÃŃcula":2688,"ĠSt":2689,"Ġvig":2690,"Ġpant":2691,"50":2692,"Ġasoci":2693,"Ġindustr":2694,"ĠPa":2695,"ĠtÃ©r":2696,"Ġpref":2697,"Ġfotos":2698,"orios":2699,"ĠahÃŃ":2700,"ificado":2701,"ĠDep":2702,"ibilidad":2703,"Ġcomprar":2704,"Ã³venes":2705,"Ã©l":2706,"unio":2707,"rad":2708,"var":2709,"Ġalcanz":2710,"Ġtuvo":2711,"Ġdado":2712,"just":2713,"Ġmedida":2714,"Ġtratamiento":2715,"celona":2716,"odos":2717,"Ġ21":2718,"Ġquedar":2719,"ramos":2720,"Ġcomien":2721,"Ġada":2722,"Ġproyectos":2723,"acciÃ³n":2724,"Ġinterior":2725,"quis":2726,"Ġofer":2727,"Ġvisto":2728,"lare":2729,"Ġestruc":2730,"Ġinternacional":2731,"RA":2732,"ĠMart":2733,"Ġhijos":2734,"adoras":2735,"Ã³s":2736,"Ġbat":2737,"icult":2738,"Ġopin":2739,"Ġmuerte":2740,"Ġaquellos":2741,"encias":2742,"ĠformaciÃ³n":2743,"Ġventa":2744,"Ġdisfrutar":2745,"Ġeran":2746,"Ġmanten":2747,"Ġesas":2748,"Ġis":2749,"ĠcomunicaciÃ³n":2750,"Ġtrabajar":2751,"Ġincluye":2752,"ĠprÃ³ximo":2753,"Ġveh":2754,"ĠTra":2755,"Ġfundam":2756,"Ġdemas":2757,"iro":2758,"ecen":2759,"ical":2760,"Ġexcl":2761,"ctr":2762,"Ġapoyo":2763,"Ġho":2764,"Ġoportunidad":2765,"Ġsean":2766,"Ġcomunidad":2767,"apa":2768,"ĠNuev":2769,"Ġcuar":2770,"tamente":2771,"ngu":2772,"Ġlig":2773,"ee":2774,"Ġmadre":2775,"ĠMedi":2776,"Ġintel":2777,"Ġcompar":2778,"todo":2779,"Ġaire":2780,"Ġmanos":2781,"bas":2782,"ancias":2783,"Ã©m":2784,"rito":2785,"Ã¡lisis":2786,"ncion":2787,"Ġpudi":2788,"Ġoctubre":2789,"eca":2790,"ĠacciÃ³n":2791,"RO":2792,"Ġcompet":2793,"dom":2794,"Como":2795,"ella":2796,"venciÃ³n":2797,"Ġbal":2798,"Ġlleva":2799,"Ġprincipales":2800,"ĠgestiÃ³n":2801,"Ġvio":2802,"Ġvamos":2803,"Ġantigu":2804,"ines":2805,"Ġnatural":2806,"ĠVe":2807,"Ġ2015":2808,"Ġsept":2809,"bal":2810,"ulaciÃ³n":2811,"Ġobras":2812,"Ġrecuper":2813,"ribu":2814,"nar":2815,"Ġcabeza":2816,"Ġnaci":2817,"ĠdirecciÃ³n":2818,"nvi":2819,"Ġindivid":2820,"Lo":2821,"envi":2822,"une":2823,"Ġnoviembre":2824,"avÃŃa":2825,"Ġleer":2826,"aleza":2827,"Ġpreocup":2828,"lares":2829,"fo":2830,"Ġmuestra":2831,"ĠinterÃ©s":2832,"ĠjÃ³venes":2833,"ive":2834,"Ġsat":2835,"Ġplata":2836,"ÃŃstica":2837,"Ġmejorar":2838,"edor":2839,"ĠJo":2840,"Ġcora":2841,"Ġexcel":2842,"Ãºblica":2843,"Ġvend":2844,"rase":2845,"ĠPr":2846,"Ġjur":2847,"Ġdiciembre":2848,"ĠallÃŃ":2849,"Ġ22":2850,"Ġenvi":2851,"ĠComp":2852,"Ġespec":2853,"ceder":2854,"roduc":2855,"Ġconcep":2856,"Ġtemporada":2857,"ĠCal":2858,"erencias":2859,"icada":2860,"Ġrealmente":2861,"Ġlabor":2862,"Ġusar":2863,"Ã¡genes":2864,"reded":2865,"ict":2866,"Ġtenido":2867,"Ġimportantes":2868,"Ġcampo":2869,"ĠDis":2870,"Ã¡ndose":2871,"omas":2872,"Ġsiglo":2873,"Ġseptiembre":2874,"Ġsir":2875,"Ġdesarroll":2876,"gencia":2877,"Ġcateg":2878,"Me":2879,"ĠcompaÃ±ÃŃa":2880,"oro":2881,"Ġnar":2882,"iend":2883,"Ġinterp":2884,"ianza":2885,"bles":2886,"ĠAy":2887,"ĠenergÃŃa":2888,"Ġjoven":2889,"Ġrede":2890,"Ġmus":2891,"nsiÃ³n":2892,"iencias":2893,"RE":2894,"ocar":2895,"nal":2896,"ke":2897,"Ġdio":2898,"QuÃ©":2899,"Ġnecesidad":2900,"dio":2901,"artamento":2902,"Ġcara":2903,"Ġelim":2904,"Ġpuedo":2905,"ĠEsto":2906,"Ġfuerza":2907,"Ġexig":2908,"Ġprimeros":2909,"ĠenseÃ±":2910,"idores":2911,"si":2912,"ĠpoblaciÃ³n":2913,"Ġmismos":2914,"Ġmant":2915,"Ġayudar":2916,"ĠCentro":2917,"Ġcontacto":2918,"ĠCast":2919,"Ã©nd":2920,"ban":2921,"ĠPal":2922,"ĠJes":2923,"Ġestra":2924,"ĠdiseÃ±":2925,"Ġqueda":2926,"ĠpodrÃ¡":2927,"imientos":2928,"Ġutilizar":2929,"Ġintegr":2930,"Ġmodif":2931,"dra":2932,"Ġvas":2933,"Ġequipos":2934,"Ġonline":2935,"Ġaudi":2936,"ĠÃ©p":2937,"Ġrespuesta":2938,"Ġedif":2939,"Ġcoche":2940,"ĠComun":2941,"ualmente":2942,"Ġmucha":2943,"Ġcuid":2944,"Ġsexo":2945,"Ġcarrera":2946,"Ġindep":2947,"ane":2948,"Ġredes":2949,"Ġcul":2950,"remos":2951,"Ġtemas":2952,"Ġestr":2953,"eria":2954,"Ġgob":2955,"Ġanunci":2956,"Te":2957,"ĠpequeÃ±o":2958,"Pero":2959,"lio":2960,"Ġpone":2961,"Ġconsec":2962,"ampoco":2963,"Ġobtener":2964,"Ã©tica":2965,"Ġrom":2966,"Ġpresencia":2967,"Ġposibilidad":2968,"Ġojos":2969,"Ġtierra":2970,"200":2971,"Ġautom":2972,"Ġtem":2973,"pas":2974,"Ġacer":2975,"ĠBue":2976,"Ġperd":2977,"Ġmer":2978,"Ġlograr":2979,"etros":2980,"ĠeducaciÃ³n":2981,"ĠServ":2982,"mb":2983,"Ġcub":2984,"euro":2985,"ĠdifÃŃcil":2986,"ulas":2987,"ix":2988,"bajo":2989,"ĠconstrucciÃ³n":2990,"Ġaprov":2991,"TI":2992,"ĠConse":2993,"Ġsufici":2994,"lesia":2995,"ĠÃ©xito":2996,"Ġsalir":2997,"nero":2998,"Ġestabl":2999,"Ġenfrent":3000,"Ġprota":3001,"jar":3002,"Ġnecesit":3003,"retar":3004,"11":3005,"ĠsÃ©":3006,"ĠbÃ¡s":3007,"Ġenci":3008,"ortes":3009,"ĠBarcelona":3010,"Ġexist":3011,"Ġjulio":3012,"Ġalreded":3013,"Ġmedia":3014,"Ġprincipio":3015,"rÃ¡fico":3016,"Ġjunio":3017,"Ġsust":3018,"Ġhijo":3019,"jeto":3020,"racias":3021,"Ġpadre":3022,"ĠSer":3023,"ĠMarÃŃa":3024,"ĠRec":3025,"Ġfis":3026,"tt":3027,"Ġpasa":3028,"enas":3029,"ĠCam":3030,"Ġpul":3031,"Ġcurso":3032,"Ġdirector":3033,"ĠorganizaciÃ³n":3034,"Ġgrupos":3035,"ĠimÃ¡genes":3036,"Ġespecialmente":3037,"Ġconjunto":3038,"Ġcontenido":3039,"Ġtam":3040,"ĠtelÃ©f":3041,"ĠPla":3042,"aya":3043,"reg":3044,"Ġba":3045,"Ġmayo":3046,"xim":3047,"Ġusuario":3048,"Ġelementos":3049,"Ġpropiedad":3050,"demos":3051,"oda":3052,"ong":3053,"Ġintere":3054,"ĠtecnologÃŃa":3055,"Ġfig":3056,"Ġagre":3057,"Ġpareja":3058,"rido":3059,"ang":3060,"Ġencuentro":3061,"Ġmaterial":3062,"ĠserÃ¡n":3063,"ĠtodavÃŃa":3064,"Ġriesgo":3065,"ĠdÃ³":3066,"Ġconform":3067,"Ġsufr":3068,"ĠaÃ±ad":3069,"antas":3070,"Ġlev":3071,"Ġprotagon":3072,"Ġarte":3073,"OM":3074,"irma":3075,"Ġbuscar":3076,"iernes":3077,"elo":3078,"ĠLA":3079,"americ":3080,"Ġquiero":3081,"ĠÃ¡rea":3082,"ĠrazÃ³n":3083,"ĠmÃŃn":3084,"Ġreserv":3085,"ĠEuropa":3086,"Ġped":3087,"Ġdeport":3088,"Ġambos":3089,"ook":3090,"Ã©g":3091,"incia":3092,"Ġdemos":3093,"Ġesfuer":3094,"As":3095,"Ġ40":3096,"aca":3097,"nÃ³":3098,"dev":3099,"rÃŃ":3100,"ensa":3101,"ĠArgentina":3102,"izado":3103,"Ġnecesidades":3104,"Ġfuerte":3105,"iendas":3106,"gosto":3107,"Ġninguna":3108,"Ġlibros":3109,"inc":3110,"Ġsuperior":3111,"Ġjuegos":3112,"ertad":3113,"Ġ2014":3114,"ĠopciÃ³n":3115,"ĠediciÃ³n":3116,"ucion":3117,"Ġpadres":3118,"AM":3119,"ablemente":3120,"son":3121,"Ġhacerlo":3122,"versiÃ³n":3123,"Ġbusca":3124,"Ġvest":3125,"CIÃĵN":3126,"Ġvisit":3127,"ĠversiÃ³n":3128,"ĠCiudad":3129,"Ġfabr":3130,"ĠfunciÃ³n":3131,"Ġcargo":3132,"icÃŃa":3133,"ĠSo":3134,"ĠCarlos":3135,"ĠhistÃ³r":3136,"Ġconocimiento":3137,".,":3138,"iende":3139,"Ġinfl":3140,"ices":3141,"Ġlengu":3142,"Ġlista":3143,"Ġpier":3144,"ĠparticipaciÃ³n":3145,"este":3146,"Ġpartes":3147,"ÃŃdo":3148,"Ġ23":3149,"ĠInstitu":3150,"ĠSanta":3151,"espuÃ©s":3152,"uerto":3153,"Ġpuedan":3154,"Ġplazo":3155,"sco":3156,"rup":3157,"Ġmarc":3158,"andid":3159,"ĠGo":3160,"ubl":3161,"Ġ$":3162,"12":3163,"cede":3164,"inado":3165,"Ġmedidas":3166,"erte":3167,"Ġjugar":3168,"Ġcambios":3169,"Ġestudios":3170,"unes":3171,"Ġparticular":3172,"ĠEmp":3173,"Ġimag":3174,"Ġproporcion":3175,"Ġhici":3176,"Ġq":3177,"idor":3178,"Ġingres":3179,"ĠEduc":3180,"Ġfact":3181,"Ġvivir":3182,"--":3183,"quiere":3184,"Ġcort":3185,"enero":3186,"Ġmetros":3187,"Ġoficial":3188,"ube":3189,"Ġelabor":3190,"Ġinvit":3191,"ĠMi":3192,"iga":3193,"ientÃŃf":3194,"EL":3195,"Ġdev":3196,"Ġefecto":3197,"Ġcob":3198,"TO":3199,"reas":3200,"Ġbon":3201,"Ġalm":3202,"Ġeuro":3203,"oce":3204,"Ġarm":3205,"ende":3206,"ĠÃºnica":3207,"Ġps":3208,"inta":3209,"ket":3210,"Ġmor":3211,"Ġambiente":3212,"Ġcambiar":3213,"reo":3214,"istro":3215,"ĠLuis":3216,"ĠcomÃºn":3217,"Ġmiembros":3218,"Ġsiguientes":3219,"hib":3220,"Ġmarzo":3221,"ues":3222,"orias":3223,"orno":3224,"Ġenero":3225,"ĠLib":3226,"âĢĵ":3227,"Ġentren":3228,"Ġnum":3229,"zc":3230,"Ġfl":3231,"ĠIg":3232,"Ġveci":3233,"Ġafirm":3234,"Ġmenor":3235,"ebrero":3236,"Ġpensar":3237,"ĠRo":3238,"rados":3239,"Ġcrecimiento":3240,"Ġgratu":3241,"Ġfrec":3242,"__":3243,"aces":3244,"glÃ©s":3245,"Ã³di":3246,"ĠAb":3247,"Ġestrateg":3248,"Ġinmedi":3249,"ĠFac":3250,"ĠVal":3251,"ĠSon":3252,"ater":3253,"ĠcorazÃ³n":3254,"Ġvoy":3255,"Ġcultura":3256,"Ġnegocio":3257,"ĠtendrÃ¡":3258,"Ġimportancia":3259,"ĠHay":3260,"Ġcrist":3261,"EC":3262,"Ġasist":3263,"Ġâ":3264,"Ġplante":3265,"ĠDel":3266,"ck":3267,"iet":3268,"Ġcerc":3269,"Ġdecid":3270,"Ġmanifest":3271,"Ġjorn":3272,"Ġconsult":3273,"Ġhas":3274,"Ġlugare":3275,"ieza":3276,"ĠOb":3277,"Ã©ctr":3278,"Ġverd":3279,"nso":3280,"ĠSec":3281,"ombia":3282,"entales":3283,"Ã¡mara":3284,"cial":3285,"uce":3286,"ĀĀ":3287,"ĠespecÃŃf":3288,"OL":3289,"Ġdom":3290,"ĠNe":3291,"Hola":3292,"Ġprueba":3293,"ĠCons":3294,"idencia":3295,"Ġincor":3296,"desa":3297,"Ġformas":3298,"Ġterrit":3299,"uelo":3300,"culo":3301,"ĠBo":3302,"rir":3303,"Ġcuad":3304,"Ġabril":3305,"Ġciento":3306,"Ġofrecer":3307,"Ġdisposit":3308,"Ġcliente":3309,"Ġmayores":3310,"Ġsolicit":3311,"Ġevento":3312,"Ġmoder":3313,"Ġaprovech":3314,"Ġcocina":3315,"entado":3316,"Ġadi":3317,"ĠsÃ¡b":3318,"Ġconstru":3319,"Ġconserv":3320,"Ĥ¬":3321,"Ġposter":3322,"Ġkil":3323,"Ġseis":3324,"Ġhon":3325,"Ġcandid":3326,"Ġtelev":3327,"Ġhip":3328,"Ġinforme":3329,"ĠpÃºblica":3330,"IA":3331,"Ġlugares":3332,"umb":3333,"ĠIN":3334,"ivil":3335,"vieron":3336,"Ġarch":3337,"Ġpeso":3338,"Ġtenga":3339,"Ġviernes":3340,"ĠÃŃ":3341,"ĠVen":3342,"Cuando":3343,"atorio":3344,"Ġbo":3345,"Ġbel":3346,"Ġpago":3347,"Ġmomentos":3348,"Ġcontar":3349,"ware":3350,"Ġefectos":3351,"Ġrecibir":3352,"ripciÃ³n":3353,"Ã³p":3354,"Ġacerca":3355,"Ġcompleto":3356,"ĠInd":3357,"ĠTor":3358,"Ġpien":3359,"Ġalrededor":3360,"Ġmit":3361,"Ġtare":3362,"ĠhabÃŃan":3363,"Ġaport":3364,"ĠFern":3365,"Ġsum":3366,"udas":3367,"Ġcompra":3368,"ry":3369,"Ġtotalmente":3370,"Ġtrabajadores":3371,"ED":3372,"Ġestudiantes":3373,"ff":3374,"ede":3375,"Ġrem":3376,"Ġdiferencia":3377,"ĠPl":3378,"dÃ©":3379,"ĠBol":3380,"her":3381,"Ġdolor":3382,"ĠcaracterÃŃsticas":3383,"ÃŃtica":3384,"Ġcolores":3385,"olver":3386,"uz":3387,"orme":3388,"nl":3389,"erior":3390,"lencia":3391,"Ã©di":3392,"Ġsatisf":3393,"15":3394,"ĠanÃ¡lisis":3395,"Ġmovimiento":3396,"Ġdemasiado":3397,"Ġcrit":3398,"Ġsistemas":3399,"Ġrelaciones":3400,"ĠFeder":3401,"Ġmem":3402,"Ġposit":3403,"ork":3404,"Ãºa":3405,"Ġ2013":3406,"Ġideas":3407,"Ġinsp":3408,"ĠÃ©poca":3409,"itario":3410,"ĠDesde":3411,"Ġdesarrollar":3412,"ormente":3413,"via":3414,"venci":3415,"Ġaprob":3416,"ĠprotecciÃ³n":3417,"Ġopciones":3418,"Ġpresup":3419,"Ġlogr":3420,"Ãį":3421,"ĠdecisiÃ³n":3422,"ĠCap":3423,"Ġespecie":3424,"Ġguar":3425,"Ġata":3426,"Ġ28":3427,"Ġcausa":3428,"Ġespaci":3429,"ĠallÃ¡":3430,"ĠPat":3431,"uyendo":3432,"Ġobst":3433,"ĠniÃ±o":3434,"Ġprofun":3435,"Ġavanz":3436,"oner":3437,"Ġpelig":3438,"fÃŃa":3439,"ĠInternet":3440,"Ġencant":3441,"18":3442,"Ġcorreo":3443,"Ġnecesita":3444,"ĠThe":3445,"leo":3446,"ĠregiÃ³n":3447,"quit":3448,"ienen":3449,"Ġguerra":3450,"Ġnaturaleza":3451,"grafÃŃa":3452,"Ġagosto":3453,"ind":3454,"Ġmateria":3455,"Ġhumanos":3456,"Ġbaja":3457,"iamente":3458,"efe":3459,"ĠpequeÃ±a":3460,"Ġpagar":3461,"ĠtÃŃtulo":3462,"ĠcarÃ¡ct":3463,"vent":3464,"alles":3465,"Ġencuentran":3466,"eter":3467,"ĠvÃŃd":3468,"Ġvin":3469,"ĠcarÃ¡cter":3470,"Ġcic":3471,"Ġvolunt":3472,"Ġvive":3473,"Ġdan":3474,"ger":3475,"olÃ³gico":3476,"Ġsomos":3477,"ĠcientÃŃf":3478,"Ġraz":3479,"Ġtampoco":3480,"Ġtratar":3481,"ioso":3482,"Ġregres":3483,"Ġexclus":3484,"diÃ³":3485,"vis":3486,"Ġnave":3487,"ĠYa":3488,"uciones":3489,"ĠCas":3490,"Ġnorte":3491,"ĠMinisterio":3492,"Ġ26":3493,"ĠSalud":3494,"ÃŃos":3495,"Ġ27":3496,"ejo":3497,"umen":3498,"Ġemo":3499,"Ġfondo":3500,"ĠdÃ³lares":3501,"Ġfac":3502,"ract":3503,"Ġpet":3504,"ĠES":3505,"quir":3506,"Ġlibertad":3507,"pia":3508,"Ġperder":3509,"Ġcompete":3510,"Ġmencion":3511,"Ġsepar":3512,"Ġcontro":3513,"ajo":3514,"Ġcomida":3515,"Ġllega":3516,"Ġimpul":3517,"Ġentrar":3518,"rende":3519,"Ġayer":3520,"Ġoriginal":3521,"Ġrefer":3522,"Ġespera":3523,"Ã¡nt":3524,"Ġple":3525,"Ġsop":3526,"ws":3527,"ĠChile":3528,"Ġ2012":3529,"Ġsupuesto":3530,"sapar":3531,"Ġtransform":3532,"ua":3533,"ocidad":3534,"Ġmateriales":3535,"rimonio":3536,"Ġorige":3537,"Ġajust":3538,"Ġentrega":3539,"tal":3540,"Ġcast":3541,"rario":3542,"Ġcompartir":3543,"iados":3544,"ĠBan":3545,"Ġevalu":3546,"Ġsa":3547,"atal":3548,"Ġcrisis":3549,"ogle":3550,"Ġorigen":3551,"Ġvideo":3552,"Ġproduct":3553,"Ġrecuer":3554,"ĠprÃ¡ctica":3555,"quina":3556,"aco":3557,"ades":3558,"Ġgo":3559,"Ġelev":3560,"Desde":3561,"Ġdomingo":3562,"Ġeta":3563,"Ġrelig":3564,"Ġmundial":3565,"Ġiz":3566,"Ġexperim":3567,"ĠâĢ¦":3568,"ĠpequeÃ±os":3569,"Ġentender":3570,"AC":3571,"ĠtelÃ©fono":3572,"ĠSa":3573,"Ġdistintos":3574,"ĠcreaciÃ³n":3575,"ĠcampaÃ±a":3576,"illos":3577,"ĠtamaÃ±o":3578,"ĠdÃ©":3579,"ĠPrim":3580,"Ġfebrero":3581,"Ġdemost":3582,"ĠmÃ¡ximo":3583,"Ġperten":3584,"dorm":3585,"Ġemb":3586,"alizado":3587,"ordin":3588,"Ġorient":3589,"Ġdecor":3590,"arla":3591,"Ġpalabra":3592,"ablo":3593,"Ġmec":3594,"ender":3595,"//":3596,"Ġcert":3597,"ĠposiciÃ³n":3598,"Ġconfirm":3599,"Ġ198":3600,"etro":3601,"Ġverano":3602,"ĠJesÃºs":3603,"Ġcorrespondi":3604,"Ġcine":3605,"Ġquieres":3606,"Ġprogramas":3607,"igue":3608,"ĠpodÃŃa":3609,"Ġllamado":3610,"ĠTen":3611,"Ġdorm":3612,"Ġincorpor":3613,"Ġdon":3614,"Ġcump":3615,"iormente":3616,"Ġrepar":3617,"antos":3618,"ĠColombia":3619,"edores":3620,"esapar":3621,"desapar":3622,"Ġliter":3623,"Ġpresenta":3624,"Ġalumnos":3625,"ĠFue":3626,"ania":3627,"Ġvisita":3628,"Ġsalida":3629,"Ġconect":3630,"Ġautoridades":3631,"Ġdeja":3632,"Ġestaban":3633,"Ãºsque":3634,"Ġtexto":3635,"Ġsemanas":3636,"ebook":3637,"Ġvie":3638,"Ġhumano":3639,"Ġproteg":3640,"Ġterre":3641,"Ġzonas":3642,"ĠArt":3643,"Ġencima":3644,"Ġejecut":3645,"iedo":3646,"Ġpis":3647,"Ġaltern":3648,"Ġsignifica":3649,"ps":3650,"ĠNav":3651,"atoria":3652,"Ġincrem":3653,"Ġtrabajos":3654,"Ġcree":3655,"imen":3656,"Ġdirectamente":3657,"Ã¡lo":3658,"Ġprocedi":3659,"ĠHe":3660,"Ġejercicio":3661,"Ġprocesos":3662,"Ġiba":3663,"idamente":3664,"Ġinnov":3665,"Ġcad":3666,"ĠinglÃ©s":3667,"Ġintegra":3668,"Ġizquier":3669,"Ġdesapar":3670,"let":3671,"Ġconsumo":3672,"Ġpantalla":3673,"Ġhogar":3674,"ĠInternacional":3675,"aÃ±os":3676,"Ġcontrario":3677,"Ġtre":3678,"Ġvoz":3679,"Ġcampe":3680,"ĠCu":3681,"xic":3682,"ĠSuper":3683,"ĠAut":3684,"erto":3685,"Ġestableci":3686,"Ġrod":3687,"Ġ60":3688,"uci":3689,"antil":3690,"nunci":3691,"uestro":3692,"ĠPod":3693,"Ġgolpe":3694,"ĠDer":3695,"Ã³digo":3696,"Ġvelocidad":3697,"Ġdib":3698,"onia":3699,"gÃ³":3700,"Ġsos":3701,"Ġsimplemente":3702,"ĠsÃ¡bado":3703,"Ġprovincia":3704,"ĠReal":3705,"Ġblanco":3706,"tur":3707,"ĠtÃº":3708,"ĠllegÃ³":3709,"ĠÃ³":3710,"ĠelÃ©ctr":3711,"ecido":3712,"ĠcontinuaciÃ³n":3713,"ismos":3714,"Ġanun":3715,"ĠAdminist":3716,"radas":3717,"ĠEj":3718,"Ġvalores":3719,"Ġquiz":3720,"Ġfirm":3721,"Ġtrasl":3722,"Ġtiempos":3723,"Ã¡ticos":3724,"Ġrequiere":3725,"iego":3726,"Ã©st":3727,"AdemÃ¡s":3728,"Ġpopular":3729,"ĠÃ¡mb":3730,"Ġbot":3731,"Ġthe":3732,"cÃŃa":3733,"ht":3734,"untamiento":3735,"quÃ©":3736,"ĠÃī":3737,"Ġesce":3738,"Ġganar":3739,"Ġmaest":3740,"Ġlimit":3741,"Ġadelante":3742,"ĠsoluciÃ³n":3743,"Ġconven":3744,"ranj":3745,"olo":3746,"Ar":3747,"ĠLat":3748,"ĠEN":3749,"eme":3750,"Ġglo":3751,"lica":3752,"cepciÃ³n":3753,"Ġnegro":3754,"Ã©nt":3755,"Ġaband":3756,"para":3757,"esto":3758,"Ġdistintas":3759,"Ġaprender":3760,"Ġdiferente":3761,"tan":3762,"Ġmic":3763,"Ġcolect":3764,"Ġplanta":3765,"Ġpersonajes":3766,"orde":3767,"Ġens":3768,"Ġmarco":3769,"ospital":3770,"Ġcontemp":3771,"ĠMay":3772,"ritur":3773,"ndimiento":3774,"Ġfamos":3775,"Ġmostrar":3776,"ĠPart":3777,"ĠMartÃŃn":3778,"Re":3779,"Ġpocos":3780,"Ġliber":3781,"ĠestÃ©":3782,"Ġeurope":3783,"ĠConsejo":3784,"ĠpolÃŃticas":3785,"Ġamigo":3786,"Ãºtbol":3787,"Ġpartidos":3788,"tica":3789,"arnos":3790,"Ġep":3791,"Ġdesa":3792,"In":3793,"Ġinteresante":3794,"ĠSp":3795,"ĠVale":3796,"Ġnivele":3797,"Ent":3798,"ĠbÃºsque":3799,"Ġniveles":3800,"Ġasi":3801,"Ġtemper":3802,"rando":3803,"imismo":3804,"ĠPed":3805,"Ġresponsabilidad":3806,"Ġacto":3807,"Ġideal":3808,"://":3809,"ĠAt":3810,"ajas":3811,"recciÃ³n":3812,"Ġsuelo":3813,"Ã©tico":3814,"!!!":3815,"ribun":3816,"Ġace":3817,"amentos":3818,"ĠEducaciÃ³n":3819,"Ġresulta":3820,"Ġmara":3821,"Ġlucha":3822,"ĠTel":3823,"ĠAmÃ©rica":3824,"dÃ³n":3825,"ĠclÃ¡s":3826,"Ġmexic":3827,"eng":3828,"Ġaprendi":3829,"Ġjugadores":3830,"ĠOl":3831,"Ġreferencia":3832,"Ġentrev":3833,"Ġseleccion":3834,"ĠvÃŃct":3835,"Ġmotivo":3836,"ĠFranci":3837,"ĠAhora":3838,"ÃŃr":3839,"Ġintelig":3840,"Ġtipos":3841,"enl":3842,"orge":3843,"Ġfr":3844,"ĠPued":3845,"ila":3846,"Ġaproxim":3847,"ĠPuede":3848,"Ġexisten":3849,"Ġacerc":3850,"Ġbeneficios":3851,"Ġtir":3852,"ĠSocial":3853,"ilit":3854,"Ġabsol":3855,"olÃ³gica":3856,"ĠpodrÃ¡n":3857,"Ġlunes":3858,"ĠAsoci":3859,"Ġconocido":3860,"Ġentorno":3861,"Ġproduce":3862,"Ġpase":3863,"laz":3864,"Ġviol":3865,"Ġfamilias":3866,"Ġtall":3867,"Ġrealizado":3868,"Ġescen":3869,"ĠUS":3870,"Ġdetalles":3871,"Ġvolv":3872,"iver":3873,"Ġsale":3874,"ĠRod":3875,"Ġdefinit":3876,"Ġmensaje":3877,"Ġvirt":3878,"Ġlin":3879,"16":3880,"Ġlocales":3881,"stas":3882,"actos":3883,"ĠpresentaciÃ³n":3884,"ĠocasiÃ³n":3885,"ick":3886,"Ġsuperfici":3887,"nado":3888,"ĠeconÃ³mica":3889,"Ġadquir":3890,"Seg":3891,"ĠRes":3892,"RI":3893,"uvo":3894,"ĠInstituto":3895,"ÃŃp":3896,"semp":3897,"ĠNos":3898,"Ġlat":3899,"cur":3900,"Ġcart":3901,"resa":3902,"ueve":3903,"ĠpolÃŃtico":3904,"rÃ©":3905,"Sin":3906,"Ġocasiones":3907,"Yo":3908,"ĠAct":3909,"iete":3910,"Ġhechos":3911,"genier":3912,"ux":3913,"Ġpuerta":3914,"Ġpregunta":3915,"Ã³nica":3916,"Ġfest":3917,"icional":3918,"orÃŃas":3919,"dicos":3920,"isiones":3921,"abe":3922,"Â».":3923,"ÃŃstico":3924,"oper":3925,"Ã©rd":3926,"Ġbuenas":3927,"cionales":3928,"ruz":3929,"Ġresponsable":3930,"Ġdoble":3931,"ĠCult":3932,"Ġmarcha":3933,"ĠeconomÃŃa":3934,"sh":3935,"Ġvari":3936,"ĠMig":3937,"Ġenl":3938,"Ġalimentos":3939,"ĠCent":3940,"Ġinicio":3941,"Ġdescon":3942,"wit":3943,"Ġperiodi":3944,"riba":3945,"estar":3946,"ĠÃ©ste":3947,"Ġindependi":3948,"ielo":3949,"riz":3950,"ires":3951,"ĠInc":3952,"Ġviolencia":3953,"ĠselecciÃ³n":3954,"Ġinternet":3955,"Ġ2011":3956,"ĠdisposiciÃ³n":3957,"dica":3958,"14":3959,"ĠEm":3960,"cito":3961,"Ġvuelta":3962,"ĠTodo":3963,"ĠinversiÃ³n":3964,"ĠMundial":3965,"Ġpronto":3966,"ans":3967,"iares":3968,"ĠcategorÃŃa":3969,"ĠMont":3970,"ĠSeÃ±":3971,"ĠpodrÃ¡s":3972,"adio":3973,"Ġobjeto":3974,"Ġcomercial":3975,"ertura":3976,"leta":3977,"anÃŃa":3978,"Ġtransporte":3979,"Ġ29":3980,"Ġahor":3981,"Ġtienda":3982,"ĠMunicip":3983,"ianos":3984,"Ġadapt":3985,"ĠopiniÃ³n":3986,"Ġbanda":3987,"Ġplane":3988,"ĠSh":3989,"Ġlet":3990,"Ġpropuesta":3991,"ise":3992,"ello":3993,"âĢ¦]":3994,"ĠPlan":3995,"Ġdemoc":3996,"ĠÐ":3997,"nomin":3998,"Ġconcent":3999,"ton":4000,"ye":4001,"ĠPo":4002,"Ġverde":4003,"quiera":4004,"Ex":4005,"esemp":4006,"desemp":4007,"Ġherramientas":4008,"Ġolvid":4009,"itaria":4010,"Ġacces":4011,"Ġsimple":4012,"Ġsentir":4013,"ĠeconÃ³mico":4014,"Ã©nero":4015,"men":4016,"Ġcomentarios":4017,"ĠAntonio":4018,"UN":4019,"ĠFin":4020,"ĠelectrÃ³nico":4021,"??":4022,"Ġdesemp":4023,"Ġcompromiso":4024,"tÃ³":4025,"Ġjornada":4026,"ribuciÃ³n":4027,"ecÃŃa":4028,"Ġaun":4029,"Ġ+":4030,"ĠMas":4031,"ĠRepÃºblica":4032,"echas":4033,"Ġconoce":4034,"Ġamena":4035,"lesc":4036,"Ġconcl":4037,"Ġexcelente":4038,"Ã¡ticas":4039,"ure":4040,"aro":4041,"dÃ©c":4042,"Ġpretend":4043,"Ġinsc":4044,"Ġestim":4045,"ĠcÃ³m":4046,"Ġsuerte":4047,"Ġrecog":4048,"rob":4049,"Ġpunt":4050,"Ġextranj":4051,"Ġcapaz":4052,"Ġeres":4053,"Ġindustria":4054,"lej":4055,"ĠEL":4056,"ĠdÃ©c":4057,"Ġconstitu":4058,"Ġgobern":4059,"tico":4060,"ĠAunque":4061,"Ġsed":4062,"ĠartÃŃculos":4063,"Ġnormal":4064,"Ġclave":4065,"25":4066,"Ġelegir":4067,"ĠInform":4068,"oll":4069,"ĠNueva":4070,"turas":4071,"17":4072,"Ġpen":4073,"ĠEntre":4074,"ÃŃrit":4075,"Ġintent":4076,"ĠMor":4077,"onen":4078,"Ġdisponible":4079,"Ġanimales":4080,"ictoria":4081,"cciÃ³n":4082,"Ġescuela":4083,"Ġqueremos":4084,"Ġaspectos":4085,"ka":4086,"13":4087,"Ġobjetivos":4088,"Ġcond":4089,"ĠCub":4090,"oras":4091,"Ġprensa":4092,"ĠAgu":4093,"Ġmodelos":4094,"Ġlegisl":4095,"Ġpena":4096,"ĠComisiÃ³n":4097,"edio":4098,"osas":4099,"anzas":4100,"eto":4101,"Ġ2010":4102,"Ġmesa":4103,"Ġacus":4104,"Ġaumento":4105,"ĠHum":4106,"Ġfort":4107,"ĠCON":4108,"ĠtÃ©cnica":4109,"anc":4110,"Ġexte":4111,"ezuela":4112,"ĠpÃ©rd":4113,"Ġfrase":4114,"Ġdiario":4115,"ĠrÃ¡pido":4116,"ation":4117,"ĠbaÃ±o":4118,"ĠDirect":4119,"ĠbÃºsqueda":4120,"ĠFrancisco":4121,"unide":4122,"Ġcentros":4123,"Ġdivert":4124,"ĠvÃŃa":4125,"Ġaceite":4126,"Ġ%":4127,"MA":4128,"Ġreduc":4129,"Ġsuficiente":4130,"Ġ&":4131,"aremos":4132,"Ġescribir":4133,"itales":4134,"Ġsignific":4135,"ĠJust":4136,"su":4137,"Ġcumplir":4138,"Ġdiez":4139,"Ġinstalaciones":4140,"Ġfunciones":4141,"Ġestructura":4142,"Ġparticipar":4143,"rique":4144,"iago":4145,"Ġmitad":4146,"coles":4147,"Ġcompleta":4148,"Ġpersonales":4149,"Ġaccid":4150,"Ġamar":4151,"ĠPas":4152,"Ġconvoc":4153,"onda":4154,"eciÃ³":4155,"Ġporno":4156,"ĠquiÃ©n":4157,"Ġhabla":4158,"ĠestÃ¡s":4159,"ĠHab":4160,"Â°":4161,"onder":4162,"ĠÃ³r":4163,"Ġjueves":4164,"Ġconflic":4165,"ĠMÃ¡s":4166,"ĠMad":4167,"Ġoferta":4168,"Ġmezc":4169,"Ġbra":4170,"ĠespaÃ±ola":4171,"dil":4172,"Ġlid":4173,"isp":4174,"Ġfamiliar":4175,"Que":4176,"Ġmiedo":4177,"ĠTur":4178,"Ġ197":4179,"Ġlevant":4180,"ĠtÃ©cnicas":4181,"arle":4182,"ĠHa":4183,"Ġpruebas":4184,"Ġlaboral":4185,"arm":4186,"Ġta":4187,"Ġtab":4188,"ij":4189,"Ġorg":4190,"Ġcentral":4191,"Ġterm":4192,"enomin":4193,"Ġcomplic":4194,"denomin":4195,"omet":4196,"Ġvariedad":4197,"edes":4198,"Ġcuidado":4199,"Ã¡ndez":4200,"quer":4201,"estas":4202,"ull":4203,"nun":4204,"Ġcontenidos":4205,"Ġotor":4206,"Ġsegura":4207,"Ġpacientes":4208,"Ġimpos":4209,"Ġrecord":4210,"Ġsangre":4211,"inte":4212,"Ġdemanda":4213,"aÃ±as":4214,"ĠestarÃ¡":4215,"60":4216,"norme":4217,"SegÃºn":4218,"enorme":4219,"ĠMat":4220,"Ġbuenos":4221,"Ġmente":4222,"ĠÃºt":4223,"izada":4224,"Ġdisco":4225,"Le":4226,"Ġbuscando":4227,"Ġprincipios":4228,"ĠDec":4229,"Ġgal":4230,"Ġpract":4231,"ĠpolÃŃticos":4232,"Ġtri":4233,"Ġestuvo":4234,"Ġconvier":4235,"Ġbor":4236,"ĠGoogle":4237,"minos":4238,"Ġcorrec":4239,"Ġalcal":4240,"ÃŃsimo":4241,"Ġhid":4242,"ardo":4243,"Ġenorme":4244,"ĠEurope":4245,"Ġinstrum":4246,"Ġpil":4247,"Ġcuyo":4248,"Ã³sito":4249,"qui":4250,"Ġcoloc":4251,"onz":4252,"Ġdicha":4253,"ĠDÃŃa":4254,"ĠTo":4255,"alizada":4256,"ota":4257,"Ġconcepto":4258,"Ã©rcoles":4259,"Ġciudade":4260,"Ġdiversos":4261,"Ġciudades":4262,"Ġexterior":4263,"ierto":4264,"Ã©ndose":4265,"ĠMiguel":4266,"ĠRev":4267,"Ġespacios":4268,"Ġosc":4269,"erg":4270,"Ġorigin":4271,"Ġconfianza":4272,"Ġaplicaciones":4273,"Ġ80":4274,"dando":4275,"tro":4276,"Ġesfuerzo":4277,"cun":4278,"Ã¡logo":4279,"pro":4280,"ionar":4281,"Ġdebemos":4282,"ĠcuestiÃ³n":4283,"Ġciudadanos":4284,"Ġfront":4285,"ĠTran":4286,"eos":4287,"Ġjefe":4288,"ph":4289,"Ġdistancia":4290,"acia":4291,"Ġdenomin":4292,"ĠpÃ¡ginas":4293,"smo":4294,"urales":4295,"ĠAyuntamiento":4296,"nam":4297,"Ġllama":4298,"ultos":4299,"Ġ[âĢ¦]":4300,"Ġoro":4301,"lez":4302,"ĠEnc":4303,"Ġsexual":4304,"Ġpaz":4305,"dor":4306,"ĠdeberÃ¡":4307,"ĠcrÃ©di":4308,"Ġprove":4309,"Ġvale":4310,"Ġdestino":4311,"UE":4312,"ĠCre":4313,"Ġbre":4314,"ĠUN":4315,"Ġinstituciones":4316,"ĠCab":4317,"Ġquieren":4318,"ĠPedro":4319,"Ġefici":4320,"ĠGe":4321,"ĠRob":4322,"Ġdigital":4323,"Ġobten":4324,"ologÃŃas":4325,"Ġrit":4326,"Ġbrin":4327,"odas":4328,"Ġcomplem":4329,"ĠpublicaciÃ³n":4330,"Ġmunicipio":4331,"Ġmadera":4332,"Ġmagn":4333,"Ġestadounide":4334,"IL":4335,"ĠManuel":4336,"ĠatrÃ¡s":4337,"CION":4338,"ĠpelÃŃculas":4339,"otas":4340,"ĠGarcÃŃa":4341,"Ġsalv":4342,"Ġtoma":4343,"ĠGal":4344,"Ġempezar":4345,"eten":4346,"Ġfiesta":4347,"Ġbomb":4348,"endencia":4349,"enda":4350,"ĠkilÃ³m":4351,"ĠÃ¡r":4352,"Ġsuperficie":4353,"rag":4354,"xto":4355,"Ġdefensa":4356,"Ġacad":4357,"ĠmÃ³vil":4358,"40":4359,"uno":4360,"legio":4361,"iosa":4362,"eÃ±o":4363,"Ġrealiza":4364,"Ġinterpret":4365,"ĠAsociaciÃ³n":4366,"ĠGracias":4367,"uos":4368,"ĠlÃŃder":4369,"ĠÂ·":4370,"Ġreflex":4371,"ĠadministraciÃ³n":4372,"ĠÃ¡reas":4373,"ĠCongreso":4374,"TambiÃ©n":4375,"ĠMic":4376,"Ġincre":4377,"ĠreuniÃ³n":4378,"ĠtÃ©cnico":4379,"Ġcif":4380,"olucion":4381,"Ġgusto":4382,"ĠdeberÃŃa":4383,"Ġclases":4384,"Ġactualmente":4385,"Ġmuest":4386,"Ġarg":4387,"Ġmand":4388,"sm":4389,"Ġempleo":4390,"uencias":4391,"Ġsusp":4392,"Ġmiles":4393,"Ġrenov":4394,"Ġaltura":4395,"Ġdificult":4396,"log":4397,"Ġchicas":4398,"Ġcot":4399,"Ġprogram":4400,"ftware":4401,"Ã¡nica":4402,"Ġperfecto":4403,"Ġprovoc":4404,"Ġfuente":4405,"Ġpropios":4406,"ÃŃritu":4407,"Ġacceder":4408,"Ġpesos":4409,"cin":4410,"Ġequip":4411,"Â³":4412,"Ġhtt":4413,"Ġech":4414,"Ġestre":4415,"arme":4416,"Ġproduci":4417,"Ġclub":4418,"Ġchica":4419,"put":4420,"AT":4421,"Ġmemoria":4422,"Ġdismin":4423,"ĠseÃ±or":4424,"adura":4425,"san":4426,"retario":4427,"ĠtÃ©rm":4428,"Ġmoda":4429,"raba":4430,"Ġcaf":4431,"Ġeng":4432,"Ġropa":4433,"ĠMuj":4434,"guay":4435,"ĠVenezuela":4436,"jes":4437,"Ġdiversas":4438,"Ġetapa":4439,"Ġfase":4440,"Ġapenas":4441,"ĠmÃ©dico":4442,"Ġhubiera":4443,"Ġnaturales":4444,"Ġescrito":4445,"Ġconex":4446,"gada":4447,"Ãģ":4448,"onÃŃa":4449,"uelas":4450,"Ġnumeros":4451,"Ġapart":4452,"iqu":4453,"Ġcontrato":4454,"Ġvisitar":4455,"Ġvino":4456,"Ġinternacionales":4457,"ĠÃ¡mbito":4458,"ĠcolaboraciÃ³n":4459,"ĠâĢ¢":4460,"Ġdarle":4461,"ĠSE":4462,"erÃŃas":4463,"ĠhabrÃ¡":4464,"Ġperiodo":4465,"ĠtelevisiÃ³n":4466,"ĠvisiÃ³n":4467,"ulado":4468,"Ġrent":4469,"Ġllamada":4470,"Ġamplia":4471,"Ġzap":4472,"SO":4473,"Ġtest":4474,"Ġtradicional":4475,"Ġreclam":4476,"Ġcircun":4477,"ĠIglesia":4478,"Ġescol":4479,"fre":4480,"riÃ³":4481,"ctores":4482,"keting":4483,"Ġarriba":4484,"ĠgÃ©nero":4485,"Ġhaga":4486,"ĠpÃºblicos":4487,"Ġganas":4488,"nciales":4489,"due":4490,"ciente":4491,"Ġnegocios":4492,"Ġfigura":4493,"Ġgrab":4494,"UL":4495,"Ġentidad":4496,"nciÃ³n":4497,"Ġpersonaje":4498,"aliza":4499,"Ġcomport":4500,"ĠDesc":4501,"Ġrespect":4502,"Ġalmace":4503,"ĠFund":4504,"ĠÂ»":4505,"ĠII":4506,"ĠDesarrol":4507,"Ġtoc":4508,"Ġsiete":4509,"CÃ³mo":4510,"Ġpudo":4511,"Ġdando":4512,"ĠcomenzÃ³":4513,"Ġaspecto":4514,"rasil":4515,"Ġcompletamente":4516,"24":4517,"lant":4518,"ĠtÃ©rminos":4519,"Ġcelebrar":4520,"Ġarquit":4521,"Ġfuncionamiento":4522,"Ġanc":4523,"Ġunidad":4524,"Ġcultural":4525,"Ġ*":4526,"Ġ31":4527,"Ġteniendo":4528,"ki":4529,"ðŁ":4530,"Ġdicen":4531,"Ġviaj":4532,"Â»,":4533,"ity":4534,"Ġfuego":4535,"Ġult":4536,"ĠlÃŃmite":4537,"Ġmotor":4538,"Ġcuya":4539,"uegos":4540,"Ġcircul":4541,"ĠXX":4542,"ĠCos":4543,"Ġconstit":4544,"Ġimpacto":4545,"ĠSus":4546,"elas":4547,"Ġmartes":4548,"witter":4549,"MÃ¡s":4550,"ĠfÃºtbol":4551,"Ġeventos":4552,"orial":4553,"Ġllegado":4554,"Ġfundamental":4555,"ĠCasa":4556,"useo":4557,"Ġconfig":4558,"Ġimplem":4559,"Ġrecibe":4560,"Ġce":4561,"Ġadolesc":4562,"ĠRed":4563,"ĠGonz":4564,"Ġanteriores":4565,"Ġcalles":4566,"Ġintens":4567,"Ġdue":4568,"ĠmiÃ©rcoles":4569,"Ġfres":4570,"Ġderecha":4571,"ĠGrup":4572,"Ġrecordar":4573,"edia":4574,"atas":4575,"Ġmaravil":4576,"Ġrob":4577,"iblio":4578,"Ġpreguntas":4579,"Ġcualquiera":4580,"Ġactualidad":4581,"Hay":4582,"guez":4583,"ĠSeguridad":4584,"IT":4585,"nda":4586,"AsÃŃ":4587,"iaciÃ³n":4588,"Ġcuarto":4589,"Ġconce":4590,"Ġesperar":4591,"igra":4592,"val":4593,"dÃ³nd":4594,"dÃ³nde":4595,"Ġplataforma":4596,"ĠÃ©sta":4597,"ĠBa":4598,"Ġmismas":4599,"emen":4600,"Ġterritorio":4601,"usa":4602,"Ġ90":4603,"Ġpes":4604,"Ġaparece":4605,"Ġpresentar":4606,"ĠSur":4607,"icante":4608,"ĠPablo":4609,"Ġavent":4610,"Ġcarga":4611,"Ġsala":4612,"Ġradio":4613,"uchas":4614,"icados":4615,"ogra":4616,"ĠÃ¡n":4617,"rump":4618,"UR":4619,"Ġprimeras":4620,"Ġcorpor":4621,"ribunal":4622,"ĠSantiago":4623,"22":4624,"Ġmarcas":4625,"Ġsituaciones":4626,"Ġizquierda":4627,"Ġlejos":4628,"ĠTh":4629,"ĠCrist":4630,"estruc":4631,"ĠTodos":4632,"Ã³pez":4633,"Ġnegoci":4634,"Ãī":4635,"Ġorganizaciones":4636,"Ġinvers":4637,"Ġrelev":4638,"ĠInv":4639,"ĠDan":4640,"Ġsede":4641,"Ġargum":4642,"Ġtales":4643,"Ġiniciativa":4644,"Ġsitios":4645,"Ġestrategia":4646,"sen":4647,"Ġconvirt":4648,"ige":4649,"jeta":4650,"ĠDeb":4651,"Ġtamb":4652,"ment":4653,"ĠgeneraciÃ³n":4654,"IO":4655,"eche":4656,"ieran":4657,"ĠRos":4658,"roso":4659,"Ġalem":4660,"uf":4661,"lamento":4662,"Ġtrabajando":4663,"Ġbur":4664,"ĠEE":4665,"Ġdescargar":4666,"Ġcm":4667,"Ġprost":4668,"neo":4669,"idez":4670,"Ìģ":4671,"erme":4672,"ĠjurÃŃ":4673,"Cu":4674,"Ġanal":4675,"Ġutiliza":4676,"urar":4677,"Ġdibuj":4678,"Ġsosten":4679,"istema":4680,"Ġpiezas":4681,"Ġpeor":4682,"Ġintereses":4683,"Ġambient":4684,"AP":4685,"Ġtej":4686,"Ġpag":4687,"Ġarro":4688,"Ã¡is":4689,"Ġnut":4690,"acho":4691,"Ġrepet":4692,"Ġderro":4693,"ĠBen":4694,"Ġjusto":4695,"ĠquerÃŃa":4696,"US":4697,"anes":4698,"Ġpsic":4699,"Ġelecciones":4700,"Ġprecis":4701,"Ġgrado":4702,"Ġnota":4703,"Ġjusticia":4704,"ĠperÃŃ":4705,"ĠInf":4706,"Ġplantas":4707,"Ġcost":4708,"ĠhabitaciÃ³n":4709,"racia":4710,"Ġplaya":4711,"ĠpresiÃ³n":4712,"Ġabandon":4713,"viv":4714,"Ya":4715,"Ġedificio":4716,"aras":4717,"Ġfamiliares":4718,"Ġprofesor":4719,"ĠvÃŃdeo":4720,"ĠDespuÃ©s":4721,"Ġsabemos":4722,"Ġpresupuesto":4723,"ĠFrancia":4724,"zaje":4725,"uyen":4726,"Ġ2009":4727,"ĠHoy":4728,"eral":4729,"Ġpedir":4730,"estre":4731,"ican":4732,"ĠEcon":4733,"Ġnie":4734,"Ġdocumento":4735,"ins":4736,"Ġvincul":4737,"Ġconocimientos":4738,"como":4739,"ĠkilÃ³metros":4740,"ĠBl":4741,"cent":4742,"ĠmÃŃnimo":4743,"Ġrevel":4744,"ĠPort":4745,"Ġdisponibles":4746,"Ġsacar":4747,"ellas":4748,"Ġalguno":4749,"ĠWeb":4750,"Ġsoluciones":4751,"och":4752,"Ġjard":4753,"Ġpais":4754,"Ġventas":4755,"Ġ70":4756,"cipl":4757,"Ġposibilidades":4758,"Ġaquella":4759,"Ġretir":4760,"Ġconm":4761,"Ġsola":4762,"leza":4763,"Ġbloque":4764,"Bue":4765,"Ġsolamente":4766,"Ġtercera":4767,"Ã¡nico":4768,"Ġhija":4769,"Ġtengan":4770,"âĤ¬":4771,"Ġfinales":4772,"ĠPrem":4773,"Ġpiedra":4774,"ĠChina":4775,"tores":4776,"ĠLÃ³pez":4777,"Ġvir":4778,"Ð¾":4779,"ju":4780,"Ġabrir":4781,"Ġaloj":4782,"Ġremo":4783,"Ġpid":4784,"ĠJav":4785,"Ġhicieron":4786,"ĠdÃ³nde":4787,"Ġpuertas":4788,"dudas":4789,"Ġcompetencia":4790,"Ã©gimen":4791,"amen":4792,"ĠBuenos":4793,"th":4794,"enunci":4795,"ĠInter":4796,"ĠAires":4797,"Ġmur":4798,"Ġdudas":4799,"âĢĭ":4800,"ĠFacebook":4801,"Ġvot":4802,"Ġabog":4803,"aturas":4804,"Ġlarga":4805,"Ġ35":4806,"viles":4807,"Ġvecinos":4808,"Ġllu":4809,"Ġdecisiones":4810,"EM":4811,"Ġespeciales":4812,"Ġexistencia":4813,"Ġboca":4814,"got":4815,"Ġnovela":4816,"Ġobstante":4817,"Ġocho":4818,"ĠsueÃ±o":4819,"ector":4820,"iero":4821,"ĠÃºltimas":4822,"Ġconsecuencia":4823,"Ġinfra":4824,"ĠdejÃ³":4825,"Ġmantenimiento":4826,"Esp":4827,"UU":4828,"pos":4829,"Ġfuerzas":4830,"ĠlÃŃneas":4831,"Ġregal":4832,"Ġlectura":4833,"yas":4834,"Ġencanta":4835,"Ġdebate":4836,"Ġnormas":4837,"Ġrequis":4838,"Ġtriun":4839,"Ġconvers":4840,"Ġterror":4841,"Ġmejora":4842,"ondos":4843,"Ġcasas":4844,"Ġcarta":4845,"Ġtritur":4846,"Ġalcanzar":4847,"Ġpesc":4848,"ĠAmb":4849,"Ġkm":4850,"Ġreducir":4851,"Ġmone":4852,"ĠEspaÃ±":4853,"Ġhuman":4854,"ĠRam":4855,"sn":4856,"Ġobt":4857,"ĠvehÃŃculos":4858,"ĠcrÃŃt":4859,"Ġherramienta":4860,"pre":4861,"Ġpasos":4862,"Ġofreci":4863,"Ġru":4864,"Ġran":4865,"Ġnoticias":4866,"ĠDesarrollo":4867,"Ġcorresponde":4868,"uebles":4869,"uar":4870,"Ġdigo":4871,"ĠCuba":4872,"dul":4873,"raciones":4874,"Ġlav":4875,"ĠhacÃŃa":4876,"Ġinterc":4877,"Ġ>":4878,"Ġrespeto":4879,"Ġfinalmente":4880,"ÃŃtulos":4881,"ĠexposiciÃ³n":4882,"Ġurb":4883,"ĠBlan":4884,"Ġjugador":4885,"Ġdirecto":4886,"Ġtitular":4887,"Ġtercer":4888,"Ġconoc":4889,"ĠHist":4890,"Ġcita":4891,"Ġmam":4892,"Ġment":4893,"ĠcompaÃ±eros":4894,"Ch":4895,"ĠEso":4896,"Ġasc":4897,"rÃ¡fica":4898,"ĠAlem":4899,"dura":4900,"irÃ¡n":4901,"23":4902,"Ġgras":4903,"ĠEv":4904,"orar":4905,"ris":4906,"Ġdiput":4907,"Ġsere":4908,"Ġacum":4909,"ĠValencia":4910,"Ġvivo":4911,"uente":4912,"Ġasign":4913,"Ġdescan":4914,"Ġcuentas":4915,"rue":4916,"blos":4917,"ĠfÃŃsica":4918,"ash":4919,"Ġposibles":4920,"ĠDav":4921,"Ġcit":4922,"Ãºltip":4923,"Ġ2008":4924,"erios":4925,"Ġcumple":4926,"Ġvacaciones":4927,"Ġescenario":4928,"Ġintro":4929,"Ġvivienda":4930,"Ġrespet":4931,"Ġnaveg":4932,"reras":4933,"Ġhabitaciones":4934,"ĠUniÃ³n":4935,"Ġpec":4936,"ecuciÃ³n":4937,"ĠsesiÃ³n":4938,"ĠFre":4939,"Ġpobre":4940,"Ġsiente":4941,"ĠinstalaciÃ³n":4942,"Ġmaqu":4943,"ĠGrupo":4944,"Ġvideos":4945,"ĠBrasil":4946,"Hoy":4947,"Ġescal":4948,"col":4949,"ĠquedÃ³":4950,"zan":4951,"ĠpodrÃŃan":4952,"ĠProv":4953,"Ġasum":4954,"ĠEstudi":4955,"Ġpublicado":4956,"ĠConstitu":4957,"eran":4958,"zado":4959,"Ġfirma":4960,"nem":4961,"ili":4962,"ĠCa":4963,"Ġexplo":4964,"ĠvehÃŃculo":4965,"Ġestablecer":4966,"oo":4967,"Ġaquellas":4968,"80":4969,"Ġresid":4970,"Ġflu":4971,"Ġfuentes":4972,"ritos":4973,"Ġveo":4974,"ĠPresidente":4975,"ĠcÃ¡mara":4976,"ĠRa":4977,"nce":4978,"can":4979,"Ġfine":4980,"lenci":4981,"ĠresoluciÃ³n":4982,"Ġdia":4983,"ts":4984,"ĠSeÃ±or":4985,"Ġgenerar":4986,"roducciÃ³n":4987,"ĠhabrÃŃa":4988,"ÃŃge":4989,"Ġministro":4990,"ĠmÃ¡xima":4991,"Ġsectores":4992,"grama":4993,"ilib":4994,"ĠpequeÃ±as":4995,"Durante":4996,"Ġfines":4997,"Ġfeliz":4998,"Ġcoinci":4999,"ĠCruz":5000,"ĠOfici":5001,"ĠNot":5002,"Ġdich":5003,"Ġembara":5004,"Ġconsidera":5005,"Ġescuchar":5006,"Ġsuele":5007,"erop":5008,"Ġsencillo":5009,"ĠacadÃ©m":5010,"udes":5011,"Ġfiscal":5012,"Ġbenefici":5013,"udicial":5014,"olÃ³gicos":5015,"ĠharÃ¡":5016,"Ġst":5017,"ĠPerÃº":5018,"Ġcompon":5019,"Ġsente":5020,"fer":5021,"ides":5022,"yos":5023,"Ġsomb":5024,"Ġabajo":5025,"ĠPers":5026,"ificados":5027,"Ġvos":5028,"deten":5029,"Ġpodido":5030,"Ġbarrio":5031,"Ġmala":5032,"indo":5033,"Ġmenores":5034,"Ġposee":5035,"ÃŃda":5036,"Ġsupone":5037,"ĠImp":5038,"Ġrefiere":5039,"Ġartes":5040,"Ġido":5041,"Ġespir":5042,"Ġllegada":5043,"Ġactitud":5044,"ĠForm":5045,"ĠprÃ¡cticas":5046,"Ġdeten":5047,"âĢ¢":5048,"amble":5049,"Ġtranqu":5050,"Ġdeseo":5051,"ĠEstos":5052,"Ġatract":5053,"chez":5054,"Ġrequer":5055,"ĠincreÃŃ":5056,"Ġazul":5057,"Ġrendimiento":5058,"Ġpropias":5059,"hab":5060,"ĠpasÃ³":5061,"rador":5062,"Ġhumana":5063,"Ġregistro":5064,"Ġina":5065,"Ġresolver":5066,"Ġpretende":5067,"Ġsimilar":5068,"ĠProduc":5069,"Ã¡stico":5070,"Ġunidades":5071,"Ġdomici":5072,"):":5073,"Ġentidades":5074,"ĠcolecciÃ³n":5075,"Ġespero":5076,"venida":5077,"ĠsecciÃ³n":5078,"Ġsoftware":5079,"ria":5080,"hu":5081,"culos":5082,"Ġexplica":5083,"ĠYork":5084,"Ġexperiencias":5085,"Ġintentar":5086,".âĢĿ":5087,"Ġate":5088,"ĠoperaciÃ³n":5089,"Ġcorte":5090,"ĠPan":5091,"ĠrealizÃ³":5092,"Ġconsigu":5093,"Ġprincipalmente":5094,"Ġocurre":5095,"Ġidi":5096,"Ġpron":5097,"Ġplaza":5098,"Ġambas":5099,"ĠÃģng":5100,"vas":5101,"ĠMal":5102,"Ġenfermedade":5103,"Ġenfermedades":5104,"Ġdocumentos":5105,"ĠpÃ©rdida":5106,"iraciÃ³n":5107,"Ġciencia":5108,"Ġargent":5109,"ĠCada":5110,"Ġderiv":5111,"Ġerror":5112,"Ġtemperatura":5113,"Ġinvert":5114,"Ġopt":5115,"ĠClub":5116,"arca":5117,"Ten":5118,"ĠJa":5119,"99":5120,"usia":5121,"Ġimposible":5122,"Ġarre":5123,"Ġmaravillos":5124,"Ġadministrat":5125,"uyÃ³":5126,"Ġcircunst":5127,"omen":5128,"Ġpremio":5129,"Ġabierto":5130,"Ġdescuent":5131,"Pro":5132,"ĠDirecciÃ³n":5133,"menes":5134,"Ġcanciones":5135,"Ġbelleza":5136,"Ġoperaciones":5137,"ĠMon":5138,"Ġdebes":5139,"ky":5140,"Ġdiag":5141,"ĠseÃ±alÃ³":5142,"Ġprote":5143,"Ġdeporte":5144,"Ġsiguen":5145,"Ġperfect":5146,"ĠDomin":5147,"Ġdura":5148,");":5149,"ptar":5150,"Su":5151,"ĠmÃºltip":5152,"Ġcereb":5153,"Ġamist":5154,"Ġtuv":5155,"Ġcalor":5156,"ecas":5157,"Ġgl":5158,"Ġgast":5159,"Ġfactores":5160,"arlos":5161,"Ġrepresenta":5162,"Ġingresos":5163,"Ġpermiten":5164,"Ġcama":5165,"onoce":5166,"viamente":5167,"Ġsilenci":5168,"ĠpolicÃŃa":5169,"Ġhubo":5170,"Ġmecan":5171,"ĠPolicÃŃa":5172,"Ġlegal":5173,"Ġrazones":5174,"Ġaprendizaje":5175,"Ġconsulta":5176,"ĠEdi":5177,"spect":5178,"ĠNorte":5179,"ualidad":5180,"Ġpedido":5181,"Ġconsol":5182,"ĠFis":5183,"ker":5184,"Ġvictoria":5185,"Ġvuelve":5186,"aran":5187,"Ġsiquiera":5188,"ĠtenÃŃan":5189,"Ġlocalidad":5190,"Ġnav":5191,"Ġprobar":5192,"Ġaumentar":5193,"Ġcomerciales":5194,"emia":5195,"Ð°":5196,"Ġfunciona":5197,"Ġequilib":5198,"osos":5199,"remo":5200,"Ġrue":5201,"gados":5202,"Ġnomb":5203,"Ġparticipantes":5204,"Ġtraslad":5205,"ĠdetrÃ¡s":5206,"Ġcomunidades":5207,"ung":5208,"ĠFundaciÃ³n":5209,"ĠelecciÃ³n":5210,"ĠConf":5211,"CO":5212,"ICA":5213,"Ġgastos":5214,"Ġnacionales":5215,"edade":5216,"Ġcomentario":5217,"rÃŃguez":5218,"idar":5219,"Ġisla":5220,"ĠllevÃ³":5221,"Ġruta":5222,"Ġdul":5223,"edades":5224,"Ġdesaf":5225,"Ġrecorrido":5226,"cÃ©s":5227,"Ġjam":5228,"ĠNO":5229,"VA":5230,"LA":5231,"Ġmilit":5232,"enso":5233,"ple":5234,"Ġcomercio":5235,"ĠsensaciÃ³n":5236,"Ġital":5237,"Ġpose":5238,"ĠAdministraciÃ³n":5239,"ĠRom":5240,"ĠOrgan":5241,"Ġtiendas":5242,"ĠinformÃ³":5243,"enem":5244,"Ġcomienza":5245,"fa":5246,"Ġrece":5247,"Ġapunt":5248,"Ġsonido":5249,"ruta":5250,"orts":5251,"ĠperÃŃodo":5252,"Ġparecer":5253,"iada":5254,"ĠMag":5255,"ĠSegÃºn":5256,"into":5257,"ĠMac":5258,"Ġcorrespondiente":5259,"iÃ±o":5260,"evilla":5261,"Ġcop":5262,"Âª":5263,"ĠSecretar":5264,"Ġincluyendo":5265,"Ġpot":5266,"Ġhar":5267,"itÃ©":5268,"Ġacog":5269,"Ġpropuestas":5270,"ĠcondiciÃ³n":5271,"Ġofertas":5272,"Ġfir":5273,"bit":5274,"Ġataque":5275,"Ġnoticia":5276,"Ġofrecen":5277,"Ðµ":5278,"aÃ±oles":5279,"Ġexpertos":5280,"ibliot":5281,"Ġhayan":5282,"ĠpÃºblicas":5283,"Ġartistas":5284,"stico":5285,"osiciones":5286,"ĠDef":5287,"reta":5288,"Ġvoc":5289,"ET":5290,"chas":5291,"Ġfol":5292,"gua":5293,"rael":5294,"acas":5295,"Ġcorto":5296,"Tras":5297,"ĠestÃ©n":5298,"ĠTer":5299,"ko":5300,"ega":5301,"ĠPP":5302,"ĠrÃŃo":5303,"Ġdispositivos":5304,"Ġencontramos":5305,"dro":5306,"Ġpueblos":5307,"Ġmunicipal":5308,"Ġestad":5309,"ĠexpresiÃ³n":5310,"Ġentra":5311,"Ġrevista":5312,"ĠhÃ¡b":5313,"ĠJusticia":5314,"Ġhermano":5315,"Ġsint":5316,"denunci":5317,"arial":5318,"Ġpide":5319,"ĠUr":5320,"itarios":5321,"ĠcÃ³digo":5322,"Ġjuntos":5323,"CA":5324,"Ġpresid":5325,"Ahora":5326,"Ġenem":5327,"Ġconstruir":5328,"Ġmantiene":5329,"ierta":5330,"ĠTras":5331,"Ġcatal":5332,"ĠrÃ©gimen":5333,"Ġolv":5334,"Ġreconocimiento":5335,"Ġformato":5336,"umbre":5337,"Ġexcep":5338,"Ġtarea":5339,"Ġdescrib":5340,"Ġaproximadamente":5341,"Ġhue":5342,"van":5343,"Ġband":5344,"Ġdenunci":5345,"45":5346,"venir":5347,"Ġcumplimiento":5348,"Ġemit":5349,"ĠdistribuciÃ³n":5350,"ti":5351,"icales":5352,"Ġdelante":5353,"estiÃ³n":5354,"Ġcarne":5355,"Ġlit":5356,"ĠRodrÃŃguez":5357,"Ġidentidad":5358,"Ġpresentes":5359,"ĠcanciÃ³n":5360,"ĀĀĀĀ":5361,"Ġconstante":5362,"Ã¡nchez":5363,"Ġritmo":5364,"Ġvic":5365,"inados":5366,"ĠFel":5367,"ĠCamp":5368,"Ġentrevista":5369,"ĠJorge":5370,"ectura":5371,"Ã¡lez":5372,"sal":5373,"iller":5374,"Ġaco":5375,"Ġterminar":5376,"Ġmilitar":5377,"ĠCristo":5378,"Ġcruz":5379,"Ġtro":5380,"formas":5381,"Ġast":5382,"Ġsusc":5383,"Ġalma":5384,"Ġprovinci":5385,"ler":5386,"ucha":5387,"Ġtransf":5388,"Ġpiso":5389,"duro":5390,"ĠtÃ©rmino":5391,"Ġalcald":5392,"say":5393,"Ġplanes":5394,"Ġadultos":5395,"ĠServicio":5396,"Ġfeder":5397,"ĠmÃ©todo":5398,"Ġprior":5399,"Ġfotograf":5400,"Ġcielo":5401,"ĠMerc":5402,"Ġfalle":5403,"Ġdetect":5404,"Ġpies":5405,"ĠPorque":5406,"izados":5407,"ĠgustarÃŃa":5408,"Com":5409,"ucÃŃa":5410,"Ġbienes":5411,"gust":5412,"Ġustede":5413,"Ġmedic":5414,"ĠexplicÃ³":5415,"Ġmotiv":5416,"Ġustedes":5417,"cho":5418,"IM":5419,"ĠPÃºbl":5420,"Ġdejado":5421,"ejas":5422,"Ġfemen":5423,"ilizaciÃ³n":5424,"ĠDr":5425,"icciÃ³n":5426,"Ġrecuerdo":5427,"Ġalcalde":5428,"ĠProfes":5429,"Ġcosto":5430,"Ġhabitantes":5431,"dur":5432,"ĠintenciÃ³n":5433,"Ġduro":5434,"ianas":5435,"Ġrelacionados":5436,"ĠRel":5437,"nea":5438,"Ġhistorias":5439,"Ġestat":5440,"Ġoportunidades":5441,"Ġdict":5442,"Ġsolicitar":5443,"Ġconvertido":5444,"Ġactos":5445,"Ġimplic":5446,"Ġprohib":5447,"Ġvit":5448,"Ġparque":5449,"enun":5450,"icial":5451,"Ġcontexto":5452,"Aunque":5453,"Ġempleados":5454,"Ġinaug":5455,"Ġfondos":5456,"Ġpese":5457,"gel":5458,"itutas":5459,"ĠvÃŃctimas":5460,"Ġabor":5461,"Ġmirada":5462,"ĠPuerto":5463,"ezol":5464,"Ġincid":5465,"ĠrÃ¡pida":5466,"Ġartista":5467,"vel":5468,"Ġprivado":5469,"Ġcorrup":5470,"ĠHo":5471,"oluc":5472,"Ġtray":5473,"todos":5474,"Ġmiembro":5475,"Ġcooper":5476,"hn":5477,"ambio":5478,"Ġpasando":5479,"Ġartic":5480,"ojas":5481,"Ġcaja":5482,"Ġgarantizar":5483,"Ġfrut":5484,"Ġcolomb":5485,"Ġrecibido":5486,"Ġcomput":5487,"Ġilum":5488,"Ġenlace":5489,"Ġsob":5490,"Ġdepende":5491,"Ġsirve":5492,"Nos":5493,"Ġadm":5494,"Ġglobal":5495,"ĠprÃ³xima":5496,"ille":5497,"Ġrevis":5498,"Ġobjetos":5499,"Ã¡ncer":5500,"ĠespaÃ±oles":5501,"Ġseres":5502,"Ġpelo":5503,"ĠCivil":5504,"ĠAlgun":5505,"Ġperfil":5506,"Ġ500":5507,"ĠLeÃ³n":5508,"sis":5509,"Ġacre":5510,"sin":5511,"ĠperiÃ³":5512,"amo":5513,"ĠDoc":5514,"Ġcivil":5515,"ĠFernando":5516,"Ġdime":5517,"Ġpublicidad":5518,"Ġjuicio":5519,"Ġsurg":5520,"Ġmos":5521,"PA":5522,"king":5523,"Ġtambien":5524,"onato":5525,"ĠFer":5526,"Ġpaciente":5527,"Ġdispositivo":5528,"Ġperspect":5529,"**":5530,"Ġconsiste":5531,"ĠconexiÃ³n":5532,"denun":5533,"Ġarmas":5534,"Ġcreado":5535,"Ġabra":5536,"Ġveg":5537,"Ġdetalle":5538,"Ġescena":5539,"iese":5540,"Ġterreno":5541,"ĠEscuela":5542,"Ġdebajo":5543,"aa":5544,"Ġleche":5545,"Ġrum":5546,"usiones":5547,"ĠinstituciÃ³n":5548,"ii":5549,"hat":5550,"Ġoficina":5551,"Ġprofund":5552,"Ġ2007":5553,"Ġaument":5554,"Ġcontrib":5555,"Ġabre":5556,"ĠVic":5557,"ÃŃz":5558,"Ġrol":5559,"Ġconciencia":5560,"21":5561,"ĠSÃ¡nchez":5562,"Ġregular":5563,"ĠtrÃ¡":5564,"ĠGonzÃ¡lez":5565,"Ġbio":5566,"ks":5567,"oche":5568,"Ġmanej":5569,"Ġtelef":5570,"ĠintervenciÃ³n":5571,"Ã¡mica":5572,"Ġdenun":5573,"org":5574,"Ġestadounidense":5575,"Ġformul":5576,"Ġsug":5577,"ĠAlemania":5578,"ĠDavid":5579,"Ġtendencia":5580,"Ġ45":5581,"ĠDEL":5582,"ĠSup":5583,"ates":5584,"ĠdaÃ±o":5585,"ursos":5586,"erapia":5587,"Ġmicro":5588,"Ġsindic":5589,"VI":5590,"Ġpuso":5591,"ĠSevilla":5592,"ĠtÃŃp":5593,"Ġtarjeta":5594,"www":5595,"Ġ=":5596,"gencias":5597,"Ġpasada":5598,"arra":5599,"uo":5600,"Ġvoluntad":5601,"Ġcursos":5602,"ĠTV":5603,"Ġdirecta":5604,"ĠZap":5605,"Â«":5606,"ijo":5607,"ued":5608,"Ġreduci":5609,"Ġasegura":5610,"esm":5611,"rores":5612,"Entre":5613,"ĠMil":5614,"ĠLeg":5615,"Ġing":5616,"Ġmezcla":5617,"alizados":5618,"Ġhom":5619,"Ġalquil":5620,"ĠcrÃ©dito":5621,"Ġcontiene":5622,"Ġdistribu":5623,"Ġdescubrir":5624,"Ġindica":5625,"olv":5626,"Ġaliment":5627,".)":5628,"ĠOt":5629,"Ġcadena":5630,"ĠAz":5631,"Ġresistencia":5632,"cont":5633,"Ġmusical":5634,"Ġ196":5635,"Ã¡culo":5636,"Ġleye":5637,"ĠpropÃ³sito":5638,"Ġgama":5639,"Ġleyes":5640,"BA":5641,"Ġnecesaria":5642,"uma":5643,"ĠItal":5644,"uÃ±":5645,"ĠNic":5646,"Ġase":5647,"berto":5648,"ander":5649,"Ġproteger":5650,"ĠLuego":5651,"Ġ@":5652,"ĠquizÃ¡s":5653,"ince":5654,"Ġhermanos":5655,"Ġvender":5656,"Ġdepartamento":5657,"Ġpendi":5658,"27":5659,"uelos":5660,"ĠclÃŃn":5661,"rano":5662,"wn":5663,"Ġcompre":5664,"ĠAquÃŃ":5665,"33":5666,"Ġsaben":5667,"ayo":5668,"Ġrojo":5669,"Ġcierre":5670,"ticos":5671,"ĠElect":5672,"ĠJunta":5673,"Ġdur":5674,"Ġcapaci":5675,"Ġvolumen":5676,"LE":5677,"Ġeliminar":5678,"ĠIndi":5679,"Ġllevan":5680,"retera":5681,"Ġsiento":5682,"Ġeditor":5683,"uede":5684,"Ġprecisamente":5685,"Ġexplicar":5686,"Ġmensajes":5687,"Ġpocas":5688,"ĠlÃ³g":5689,"26":5690,"ĠFl":5691,"ĠComunidad":5692,"Ġtareas":5693,"Ġciclo":5694,"Ġvemos":5695,"ss":5696,"Ġquedan":5697,"Ġbici":5698,"Ġforo":5699,"esn":5700,"ilos":5701,"grÃŃa":5702,"Ġprocedimiento":5703,"Ġlimpieza":5704,"Ġfij":5705,"Ġamplio":5706,"ĠcÃ¡l":5707,"ĠhistÃ³rico":5708,"Ġtorno":5709,"ĠasegurÃ³":5710,"Ġrost":5711,"pol":5712,"Ġdeleg":5713,"Ġhabitual":5714,"ĠPartido":5715,"Ġtub":5716,"Ġbeneficio":5717,"Ġaccion":5718,"Mi":5719,"Ġconvenci":5720,"aso":5721,"ĠHer":5722,"Ġreconocer":5723,"Ã©rez":5724,"ENT":5725,"ĠServicios":5726,"Ġespectac":5727,"enam":5728,"Ġline":5729,"Ġhu":5730,"Ġsuelen":5731,"allas":5732,"gamos":5733,"ĠfÃŃsico":5734,"nsiones":5735,"duraciÃ³n":5736,"ĠmÃºltiples":5737,"Ġsorprend":5738,"Ġlenguaje":5739,"ĠevoluciÃ³n":5740,"Ġreforma":5741,"Ġorganismo":5742,"Ã©rcito":5743,"Ġcomenzar":5744,"Ġiglesia":5745,"ĠBr":5746,"DespuÃ©s":5747,"eraciÃ³n":5748,"Ġpuestos":5749,"Ġpermitir":5750,"Ġsimil":5751,"land":5752,"Ġvul":5753,"ike":5754,"Ġcale":5755,"Ġcubr":5756,"Ġhier":5757,"ĠSam":5758,"eas":5759,"ĠBal":5760,"Ġleyendo":5761,"ĠBanco":5762,"Ġperdido":5763,"indows":5764,"Ġpermanente":5765,"Ġhacemos":5766,"Ġcanal":5767,"%.":5768,"mm":5769,"sign":5770,"Ġpotencia":5771,"Ġviajes":5772,"Ġmovimientos":5773,"ini":5774,"ĠDurante":5775,"Ġinferior":5776,"Ġcierta":5777,"ĠVilla":5778,"inaria":5779,"Ġalcance":5780,"Ġsuma":5781,"ĠÃºtil":5782,"resiÃ³n":5783,"ĠPad":5784,"ĠduraciÃ³n":5785,"ultad":5786,"Ġdro":5787,"Ġhonor":5788,"Ġreciente":5789,"Ġenam":5790,"rer":5791,"Ġfrecuencia":5792,"Ġarran":5793,"Ġapreci":5794,"Ġrestaurante":5795,"Ġhospital":5796,"diendo":5797,"ĠSem":5798,"Ġwww":5799,"ĠtendrÃ¡n":5800,"ĠEspeci":5801,"Ġsost":5802,"Ġrequisitos":5803,"Ġnecesarios":5804,"torio":5805,"erado":5806,"nÃ³me":5807,"Ġcontrolar":5808,"ejor":5809,"âĢĻ,":5810,"Ġpromedio":5811,"yes":5812,"ĠrÃ¡pidamente":5813,"ĠpromociÃ³n":5814,"Ġencontrado":5815,"desn":5816,"Ġchicos":5817,"ĠMer":5818,"Ġaguas":5819,"Ġsegundos":5820,"Ġrefle":5821,"igos":5822,"Ġprefer":5823,"ĠTa":5824,"Ġpresentado":5825,"Ġnombres":5826,"Ġagres":5827,"IF":5828,"amblea":5829,"gio":5830,"Ġdependi":5831,"ĠespÃŃritu":5832,"uestros":5833,"apacidad":5834,"ĠCultura":5835,"Ġhttp":5836,"Ġplaneta":5837,"ight":5838,"Ġdeje":5839,"Ġrecuerda":5840,"eropuerto":5841,"ĠMÃ¡":5842,"Ġperfecta":5843,"Ġbos":5844,"Ġconocida":5845,"uchos":5846,"Ġentregar":5847,"CE":5848,"Ġatac":5849,"Ġrode":5850,"Ã³lica":5851,"ĠrealizaciÃ³n":5852,"ĠcuÃ¡":5853,"28":5854,"ratÃ©g":5855,"Ġaplicar":5856,"ĠtecnologÃŃas":5857,"ĠHotel":5858,"ĠTierra":5859,"Ġcuidad":5860,"Ġformar":5861,"Ġdesn":5862,"Ġacaba":5863,"uenta":5864,"Ġdejo":5865,"Ġingre":5866,"sor":5867,"35":5868,"Ġpensamiento":5869,"coh":5870,"ĠTecn":5871,"Ġequiv":5872,"Ġestan":5873,"Ġinfantil":5874,"DO":5875,"ĠVir":5876,"rales":5877,"Ġtransmit":5878,"isten":5879,"eramente":5880,"ĠCer":5881,"?,":5882,"ĠInvestig":5883,"Ap":5884,"ĠactuaciÃ³n":5885,"ĠalimentaciÃ³n":5886,"ĠrecibiÃ³":5887,"ĠIncl":5888,"Ġcuentan":5889,"ĠguÃŃa":5890,"ĠSil":5891,"Ġtantos":5892,"ĠRusia":5893,"PS":5894,"Ġsuminist":5895,"ĠDip":5896,"Ġimpresion":5897,"Ġperm":5898,"Ġespal":5899,"2018":5900,"Ġquede":5901,"Ġvaya":5902,"Ġsubir":5903,"Ġputas":5904,"Ġasistencia":5905,"Ġproducir":5906,"ĠÃīl":5907,"lado":5908,"rarse":5909,"Ġconcurso":5910,"ĠMunicipal":5911,"ĠSub":5912,"ĠpresentÃ³":5913,"____":5914,"ĠĠ":5915,"ĠmisiÃ³n":5916,"Ġconcreto":5917,"Ġhablando":5918,"pero":5919,"ĠBel":5920,"isos":5921,"ĠMed":5922,"ĠSistema":5923,"Ġsolicitud":5924,"Ð¸":5925,"uces":5926,"ĠBer":5927,"Ġlengua":5928,"ĠNeg":5929,"Ġelemento":5930,"Ġcomportamiento":5931,"Ġsabes":5932,"ray":5933,"Ġsabor":5934,"ĠMur":5935,"gram":5936,"ĠTom":5937,"olina":5938,"Ġasunto":5939,"Ġnecesitan":5940,"olÃ³gicas":5941,"Ġlleno":5942,"ĠfenÃ³me":5943,"Ġchico":5944,"ĠSex":5945,"Ġdieron":5946,"Ġclara":5947,"gadas":5948,"Ġporcent":5949,"Ġ300":5950,"zca":5951,"Ġadecuado":5952,"ĠevaluaciÃ³n":5953,"Ġsuel":5954,"ĠfrancÃ©s":5955,"uentes":5956,"Ġreb":5957,"onel":5958,"Ġconsecuencias":5959,"Ġsp":5960,"Ġerrores":5961,"Ġagentes":5962,"Ġcontinuar":5963,"ĠVI":5964,"Ġexport":5965,"Ġesposa":5966,"ild":5967,"ĠTribunal":5968,"ipe":5969,"',":5970,"ĠcafÃ©":5971,"Ġreserva":5972,"Ġcontactos":5973,"ĠprÃ³ximos":5974,"ĠEstas":5975,"Pre":5976,"Ġmercados":5977,"Ġarchivos":5978,"29":5979,"ĠbebÃ©":5980,"Ġrepresentantes":5981,"Ġflo":5982,"Ġsuces":5983,"roid":5984,"Ġ..":5985,"Ġutilizando":5986,"ÃŃsima":5987,"Ġdomicilio":5988,"we":5989,"dece":5990,"]âĢĭ":5991,"Ġtrabaja":5992,"Ġtraduc":5993,"Ġpropiet":5994,"Ãĳ":5995,"ĠPÃ©rez":5996,"Ġvert":5997,"iverso":5998,"Ġcarb":5999,"Ġfom":6000,"Ġtap":6001,"Ġverdadero":6002,"estructura":6003,"onso":6004,"Ġpoderos":6005,"Ġvenezol":6006,"Ġindustrial":6007,"Ġdij":6008,"ĠiP":6009,"Ġgratuita":6010,"ĠTwitter":6011,"Ġriesgos":6012,"ics":6013,"Ġrelaj":6014,"Ġconde":6015,"Ġinvoluc":6016,"Ġresponder":6017,"mes":6018,"iÃ¡n":6019,"ÃŃsticos":6020,"Ġacudi":6021,"ĠAL":6022,"isas":6023,"Ġmenudo":6024,"utaciÃ³n":6025,"Ġtoque":6026,"Ġsustitu":6027,"Ġrech":6028,"zada":6029,"nses":6030,"Ġaudio":6031,"Ġtrib":6032,"ĠAst":6033,"Ġcaliente":6034,"ĠHu":6035,"ĠEuropea":6036,"%,":6037,"ĠPlaza":6038,"Ġconsejos":6039,"allo":6040,"nor":6041,"Ġameric":6042,"Ġpaque":6043,"actar":6044,"Ġprogres":6045,"Ġperfectamente":6046,"sl":6047,"atar":6048,"Ġ36":6049,"erar":6050,"ĠSte":6051,"ĠPRO":6052,"ĠTr":6053,"Ġabierta":6054,"doba":6055,"Ġautores":6056,"Rec":6057,"Ġcorrect":6058,"Ġaccidente":6059,"Ġrey":6060,"Ġresponsables":6061,"Ġmotivos":6062,"ĠcÃ¡ncer":6063,"Ġdesconoci":6064,"Ġtransc":6065,"Ġcarretera":6066,"Ġconvierte":6067,"Ġcaer":6068,"ĠCopa":6069,"Ġalmacen":6070,"ienta":6071,"Ġpuesta":6072,"Ġutilizado":6073,"ĠniÃ±a":6074,"Ġcomune":6075,"eÃ±":6076,"rucciones":6077,"Ġsencilla":6078,"ĠdeberÃ¡n":6079,"lÃŃ":6080,"Ġcomunes":6081,"ĠMore":6082,"Ġtier":6083,"ĠfotografÃŃa":6084,"Gracias":6085,"ĠFest":6086,"oraciÃ³n":6087,"ciles":6088,"ĠquÃŃm":6089,"ĠSalv":6090,"Ġubicado":6091,"Ġrat":6092,"RES":6093,"Ġpin":6094,"Ġantiguo":6095,"ĠSel":6096,"ĠDerecho":6097,"Ġdece":6098,"ivar":6099,"Ġfuertes":6100,"ĠAD":6101,"Ġpeligro":6102,"cionado":6103,"Ġconflicto":6104,"Ġdiscipl":6105,"adal":6106,"Ġproced":6107,"Ġaclar":6108,"Ã³logo":6109,"Ġresist":6110,"Ġ)":6111,"Ġincluyen":6112,"ĠejecuciÃ³n":6113,"ĠAna":6114,"Ġentend":6115,"Ġetique":6116,"ĠdecÃŃa":6117,"afa":6118,"icadas":6119,"tada":6120,"ĠDepartamento":6121,"ĠDist":6122,"ham":6123,"ÃŃe":6124,"ĠoposiciÃ³n":6125,"Ġprotagonista":6126,"Ġautoridad":6127,"ĠcelebraciÃ³n":6128,"ĠJavier":6129,"ĠRey":6130,"Ġmasa":6131,"Ġcreci":6132,"Ġhuel":6133,"Ġlist":6134,"90":6135,"Ġquedado":6136,"nza":6137,"ĠmÃ©dicos":6138,"ĠautÃ©nt":6139,"Ġveget":6140,"amÃ©rica":6141,"Ġanimal":6142,"ĠCentral":6143,"Ġsoporte":6144,"ĠON":6145,"Ġhacerse":6146,"Ġflex":6147,"ĠPop":6148,"Ã¡bamos":6149,"Ġjap":6150,"Ġbu":6151,"Ġdetall":6152,"iÃ±":6153,"Ġapertura":6154,"ueva":6155,"ĠTÃ©cn":6156,"ĠProt":6157,"Ġintelect":6158,"net":6159,"unda":6160,"ĠsÃŃnt":6161,"ĠSab":6162,"ecutivo":6163,"Ġpotencial":6164,"Ġreac":6165,"ĠTal":6166,"Hace":6167,"Ġmarketing":6168,"ĠCorte":6169,"guir":6170,"iÃ©ndose":6171,"jud":6172,"ĠestÃ¡nd":6173,"ĠmÃ¡quina":6174,"Ġaceptar":6175,"Ġresc":6176,"ĠnÃºmeros":6177,"Ġactuales":6178,"Ġpensando":6179,"Ġnerv":6180,"ĠSecretarÃŃa":6181,"Ġviendo":6182,"ĠExp":6183,"Ã³nico":6184,"Ã³rm":6185,"Ġplacer":6186,"ĠMientras":6187,"Ġregul":6188,"Ġestablece":6189,"rÃ©s":6190,"Ġagradable":6191,"stru":6192,"Ġhabilidades":6193,"guar":6194,"ĠtÃ©cnicos":6195,"Ġdecide":6196,"Ġsonr":6197,"quez":6198,"Ġdefens":6199,"Ġvienen":6200,"Ġgenial":6201,"ĠestaciÃ³n":6202,"Ġbrit":6203,"Ġcerrar":6204,"ĠLiga":6205,"Ġfuncionarios":6206,"urantes":6207,"Ġans":6208,"Ġauton":6209,"adero":6210,"Ġestrellas":6211,"ĠenvÃŃo":6212,"genierÃŃa":6213,"inada":6214,"ARA":6215,"Ġcabello":6216,"ĠRE":6217,"70":6218,"icionales":6219,"dientes":6220,"Ġhago":6221,"cindi":6222,"ox":6223,"Ġfich":6224,"ĠGre":6225,"Ġdesplaz":6226,"ĠCosta":6227,"Ġexpect":6228,"Ġaprend":6229,"Ġllevado":6230,"Ġindependiente":6231,"Ġteatro":6232,"mart":6233,"ĠAudi":6234,"Ġbuscan":6235,"ĠTrabajo":6236,"ĠdÃ©cada":6237,"Ġpintura":6238,"ĠdaÃ±os":6239,"ĠTar":6240,"ĠPues":6241,"Ġbases":6242,"Ġfer":6243,"ĠFernÃ¡ndez":6244,"Ġllegue":6245,"ĠreciÃ©n":6246,"Ġfutbol":6247,"ĠMartÃŃnez":6248,"jal":6249,"ĠOc":6250,"Ġdesea":6251,"Ġarchivo":6252,"Ġcomunicado":6253,"Ġsecretario":6254,"Ġsuf":6255,"ĠsabÃŃa":6256,"euda":6257,"Ġposterior":6258,"Ġperro":6259,"icana":6260,"ĠRef":6261,"ĠValle":6262,"Ġvistas":6263,"Ġcay":6264,"ocional":6265,"ĠFuer":6266,"Ġestuv":6267,"ĠprÃ¡cticamente":6268,"han":6269,"Ġdefinitiva":6270,"Ġcontam":6271,"ĠubicaciÃ³n":6272,"Ġchile":6273,"Ġtaller":6274,"ĠÃºnicamente":6275,".\"":6276,"Ġcompetit":6277,"Ġterra":6278,"ĠDo":6279,"quinas":6280,"36":6281,"ĠItalia":6282,"grado":6283,"Ġaquello":6284,"Ġempieza":6285,"ĠJap":6286,"icultura":6287,"Ġmanifi":6288,"andro":6289,"Ġ2006":6290,"Ġespecif":6291,"-,":6292,"ĠCla":6293,"Ġvidas":6294,"ĠLin":6295,"ĠGuerra":6296,"Ġcoci":6297,"esay":6298,"Ġtut":6299,"Ġimplica":6300,"ĠFederal":6301,"desay":6302,"Ġlujo":6303,"ites":6304,"Ãºsc":6305,"Ġpremios":6306,"Ġacuer":6307,"ril":6308,"Ġemer":6309,"Ġclic":6310,"ĠanunciÃ³":6311,"Ġllena":6312,"ish":6313,"ĠPD":6314,"Ġcostos":6315,"Ġdejando":6316,"ÑĤ":6317,"erenci":6318,"oder":6319,"ĠcÃ©l":6320,"Ġalcoh":6321,"Ġexact":6322,"Ġbrilla":6323,"ariamente":6324,"deuda":6325,"ĠindicÃ³":6326,"Ġcomprender":6327,"ĠmÃ³viles":6328,"roe":6329,"ys":6330,"ĠFil":6331,"AB":6332,"Ġciv":6333,"Ġturismo":6334,"ĠÃ³pt":6335,"ĠConstituciÃ³n":6336,"ĠdecidiÃ³":6337,"Ġgrave":6338,"ãģ":6339,"ept":6340,"ĠafirmÃ³":6341,"Ġcog":6342,"iosos":6343,"500":6344,"ĠcaÃŃda":6345,"ĠCÃ¡mara":6346,"Ġprivada":6347,"Ġilust":6348,"ĠAng":6349,"Ġcandidato":6350,"Cont":6351,"ĠHar":6352,"tel":6353,"ĠCiencias":6354,"ĠrecuperaciÃ³n":6355,"Ġmatrimonio":6356,"ĠAv":6357,"Desc":6358,"Ġinicial":6359,"ĠJulio":6360,"ĠNi":6361,"ibe":6362,"Ġcompro":6363,"Ġdeuda":6364,"Ġinspir":6365,"letas":6366,"ĠComer":6367,"ĠDon":6368,"Ġvisitas":6369,"ĠtrÃ¡fico":6370,"Ġadecuada":6371,"ĠðŁ":6372,"Art":6373,"ĠSanto":6374,"Ġbi":6375,"ĠeconÃ³micos":6376,"Ġdesay":6377,"DE":6378,"Ġconvertir":6379,"Ġhuev":6380,"Ġestrategias":6381,"Ġincon":6382,"Ġconsigue":6383,"Ġjuez":6384,"Ġacost":6385,"ĠAgr":6386,"Ġesperanza":6387,"Ġsucede":6388,"Ġorgul":6389,"Ãºcar":6390,"Ġasesor":6391,"Ġgobier":6392,"Ġreceta":6393,"IB":6394,"Â´":6395,"ĠSÃŃ":6396,"Ġfab":6397,"Ġenviar":6398,"Ġtransm":6399,"ley":6400,"Ġcompromet":6401,"ĠLond":6402,"Ġrostro":6403,"Ġsimilares":6404,"ĠHern":6405,"Ġsubs":6406,"Ġllamar":6407,"afas":6408,"Ġcapaces":6409,"ĠfrÃŃo":6410,"Ġdisput":6411,"Ġoficiales":6412,"ood":6413,"Ġcreer":6414,"Ġprofesores":6415,"Ġcuel":6416,"americana":6417,"Ġmeta":6418,"Ġexpedi":6419,"atividad":6420,"Ġdieta":6421,"Ġperci":6422,"ĠrepresentaciÃ³n":6423,"ĠMuseo":6424,"Ġintegral":6425,"Ġileg":6426,"ĠâĤ¬":6427,"Ġventaja":6428,"Ġtono":6429,"Ġcosta":6430,"Ġmel":6431,"vio":6432,"Ġapartado":6433,"Ġfiestas":6434,"Ġrecuperar":6435,"Ġsolucion":6436,"ĠfÃ¡cilmente":6437,"Ġflores":6438,"osofÃŃa":6439,"Ġestablecido":6440,"ĠinnovaciÃ³n":6441,"Ġfacilitar":6442,"55":6443,"Ġcircunstancias":6444,"ĠGuar":6445,"icen":6446,"Ġdestacar":6447,"rist":6448,"Mar":6449,"Ġpuedas":6450,"sÃŃa":6451,"resas":6452,"ĠMundo":6453,"ĠOs":6454,"Ġchoc":6455,"ĠIb":6456,"Ġespecies":6457,"ĠlogrÃ³":6458,"Ġconoz":6459,"Ġgenerales":6460,"Ġcomienzo":6461,"ionado":6462,"Ġlic":6463,"Ġescog":6464,"Ġbanco":6465,"lb":6466,"Ġcausas":6467,"tados":6468,"Ġreales":6469,"Ġprobablemente":6470,"Ġmanejo":6471,"Ġras":6472,"Ġviajar":6473,"ĠparecÃŃa":6474,"Ġlluvia":6475,"ĠAg":6476,"Ġrub":6477,"Ġpiscina":6478,"Ġhel":6479,"Ġindividual":6480,"Ġcoord":6481,"ĠtradiciÃ³n":6482,"ĠPrograma":6483,"zgo":6484,"Ġregalo":6485,"!!!!":6486,"Ġaltos":6487,"ĠIndustr":6488,"ĠempezÃ³":6489,"Ġdoce":6490,"Ġnecesarias":6491,"ĠCÃ³r":6492,"ĠsaliÃ³":6493,"ĠWindows":6494,"ĠaÃ±adir":6495,"Ġservir":6496,"III":6497,"ĠlÃ¡":6498,"Ġtasa":6499,"ĠSolo":6500,"Ġquis":6501,"Ġprol":6502,"ativamente":6503,"Ġcomod":6504,"Ġtrip":6505,"oque":6506,"Ġdistin":6507,"Ġtuvieron":6508,"ife":6509,"Ġestudiar":6510,"versidad":6511,"Ġdiferencias":6512,"Ã¼e":6513,"Ã©ticos":6514,"ĠcompaÃ±ÃŃas":6515,"Ġpropiedade":6516,"ĠTiene":6517,"ĠBur":6518,"Ġpropiedades":6519,"Ġdispar":6520,"ĠAN":6521,"ĠteorÃŃa":6522,"Ġpleno":6523,"Ġrechaz":6524,"ĠReino":6525,"Ġviento":6526,"Ġelectoral":6527,"acta":6528,"ĠTrump":6529,"old":6530,"Ġquerido":6531,"ĠOp":6532,"ly":6533,"Ġusa":6534,"ances":6535,"Ġdoctor":6536,"ator":6537,"ĠescribiÃ³":6538,"ĠGab":6539,"Ġprostitutas":6540,"95":6541,"Ġcontribu":6542,"ement":6543,"ruct":6544,"Ġnuevamente":6545,"Ġdispone":6546,"ĠVol":6547,"Ġpieza":6548,"Ġentrenamiento":6549,"Ġjuz":6550,"Ġtorneo":6551,"dujo":6552,"Ð½":6553,"Ġtrituradora":6554,"Ġsujet":6555,"ĠniÃ±as":6556,"icantes":6557,"ock":6558,"undar":6559,"ĠgarantÃŃa":6560,"Ġanalizar":6561,"ĠInte":6562,"ĠcuÃ¡l":6563,"rev":6564,"ĠEntonces":6565,"ĠFor":6566,"onse":6567,"inario":6568,"Ġdemostrar":6569,"ĠTu":6570,"Ġreto":6571,"Ġoptim":6572,"ortar":6573,"Ġmm":6574,"Ġnecesitas":6575,"Ġfantas":6576,"Ġcompras":6577,"ÃŃfico":6578,"ografÃŃa":6579,"lia":6580,"Ġrespal":6581,"Ġdispuesto":6582,"Ġajuste":6583,"Ġtantas":6584,"Ġdemand":6585,"nn":6586,"ĠDiv":6587,"ĠDaniel":6588,"Ġfrases":6589,"Ġpresentan":6590,"Ġcuch":6591,"Ġllegan":6592,"ĠProy":6593,"Ġcapit":6594,"DA":6595,"UC":6596,"Ġesperando":6597,"ilaciÃ³n":6598,"guro":6599,"Ġdestaca":6600,"Ġutilizan":6601,"Ġdiscurso":6602,"ĠParque":6603,"Ġcircu":6604,"Ġfuncional":6605,"Ġrazon":6606,"ĠestratÃ©g":6607,"ĠjamÃ¡s":6608,"Ġflor":6609,"ĠreducciÃ³n":6610,"SS":6611,"Ġliteratura":6612,"Ġpuerto":6613,"ustri":6614,"Ġconvertirse":6615,"IV":6616,"ĠAC":6617,"Ġviven":6618,"Ġpecho":6619,"ongo":6620,"rico":6621,"Ġconforme":6622,"Ġcomet":6623,"Ġnueve":6624,"ĠcrÃŃtica":6625,"Ġestados":6626,"Ġactores":6627,"Ġdije":6628,"ĠFe":6629,"Ġdelant":6630,"ĠAM":6631,"Ġcomplejo":6632,"Ġciertos":6633,"Ġguer":6634,"ĠSociedad":6635,"Ġcomunic":6636,"Ãł":6637,"Ġdeterminar":6638,"Ġclim":6639,"Ġinvierno":6640,"Ġsituado":6641,"orÃ¡n":6642,"Ġ32":6643,"alucÃŃa":6644,"Ġdemocracia":6645,"ĠNoticias":6646,"ĠEd":6647,"ĠsalÃ³n":6648,"Ġculturales":6649,"ĠenseÃ±anza":6650,"Ġ2000":6651,"deres":6652,"orado":6653,"Ġsentencia":6654,"Ġcompat":6655,"ĠseÃ±ala":6656,"ĠResp":6657,"jero":6658,"Ġanuncios":6659,"americano":6660,"Ġpierd":6661,"Ġordenador":6662,"TU":6663,"ĠLatina":6664,"Ġpersonalidad":6665,"Ã©ndo":6666,"Ġfechas":6667,"Ġatender":6668,"iblioteca":6669,"Ġpierde":6670,"Ġarreg":6671,"ĠFiscal":6672,"ak":6673,"ĠlÃŃqu":6674,"Ġtrop":6675,"Ġinci":6676,"Ġrecurso":6677,"Ġsalvo":6678,"hone":6679,"TER":6680,"Ġacredi":6681,"ibra":6682,"Ġtextos":6683,"Ġescuelas":6684,"rendi":6685,"icit":6686,"idencial":6687,"teras":6688,"Ġactor":6689,"iÃ©":6690,"Ġsuave":6691,"Ġrealizan":6692,"oces":6693,"quÃŃa":6694,"ĠalegrÃŃa":6695,"Ġalej":6696,"34":6697,"Ġfacilit":6698,"Ġcalcul":6699,"Ġminuto":6700,"Ġvende":6701,"Ġsorpresa":6702,"Ġpopulares":6703,"Ġacel":6704,"rones":6705,"LO":6706,"ĠComercio":6707,"sto":6708,"ĠNuevo":6709,"Ġestup":6710,"ĠRÃŃo":6711,"ĠMedio":6712,"Ġescap":6713,"Ġcuadro":6714,"Ġquiera":6715,"ĠAlej":6716,"Ġdescubr":6717,"ith":6718,"Ġantigua":6719,"Ġfiel":6720,"Ġaparecen":6721,"Esto":6722,"how":6723,"erÃ¡":6724,"Ġhice":6725,"Ġbreve":6726,"ĠNew":6727,"ĠRafa":6728,"ĠMet":6729,"Ġrato":6730,"Ġrap":6731,"Ġconstr":6732,"ruto":6733,"icaz":6734,"ĠFederaciÃ³n":6735,"sted":6736,"ĠInformaciÃ³n":6737,"Ġrecientemente":6738,"Ġadquirir":6739,"Ġescolar":6740,"Ġmoto":6741,"Ġadv":6742,"irar":6743,"ĠdeclaraciÃ³n":6744,"Ġconqu":6745,"Ġhorm":6746,"ĠpermitirÃ¡":6747,"ertar":6748,"Todo":6749,"Ġsuperar":6750,"ĠJul":6751,"Ġentradas":6752,"Ġcomponentes":6753,"ĠfotografÃŃas":6754,"Ġactuar":6755,"Ġdesarrollado":6756,"retos":6757,"Ġfelicidad":6758,"ĠdiÃ¡logo":6759,"GO":6760,"frica":6761,"Ġdominio":6762,"Ġtort":6763,"Pues":6764,"ĠSala":6765,"Ġrealizada":6766,"âĢ¦.":6767,"ĠclÃ¡sico":6768,"ĠParÃŃs":6769,"Ġdecidido":6770,"Ġseguros":6771,"ĠAndroid":6772,"ĠPÃºblica":6773,"Ġcolum":6774,"vos":6775,"?.":6776,"ĠvolviÃ³":6777,"Ġventajas":6778,"Ġimpuestos":6779,"Ġespirit":6780,"IDAD":6781,"ĠInst":6782,"Ġgig":6783,"ĠasociaciÃ³n":6784,"ĠEr":6785,"ĠcorrupciÃ³n":6786,"Ġincremento":6787,"mail":6788,"Ġmanual":6789,"erman":6790,"ĠEstÃ¡":6791,"ĠHospital":6792,"Ġsilencio":6793,"ĠGrand":6794,"Ġanual":6795,"sque":6796,"Ġtarif":6797,"QU":6798,"Ġresal":6799,"entas":6800,"Ġcorriente":6801,"ndario":6802,"omenaje":6803,"Ġadelant":6804,"ĠPel":6805,"Ġmover":6806,"ajaj":6807,"Ġidentific":6808,"avera":6809,"Ġrespuestas":6810,"ujo":6811,"Ġgenera":6812,"ĠVil":6813,"Ġjunt":6814,"ĠPlata":6815,"ĠHistoria":6816,"Ġcoste":6817,"Ġcuesta":6818,"Ġvulner":6819,"ĠincreÃŃble":6820,"ĠUno":6821,"Ġadicional":6822,"Ġpeligros":6823,"Ġdormit":6824,"Ġverdadera":6825,"cendi":6826,"ld":6827,"Ġdefender":6828,"Ġalternativa":6829,"Ġentiende":6830,"epres":6831,"lin":6832,"ventud":6833,"ium":6834,"Ã¡ndole":6835,"dieron":6836,"Ġcuestiones":6837,"Ġperiodista":6838,"Ġactivos":6839,"ĠPC":6840,"ĠPaz":6841,"Ġvisitantes":6842,"Ġzapatos":6843,"Ġfinalidad":6844,"Ġpartida":6845,"ĠmÃ©todos":6846,"Ġconseguido":6847,"Ġfant":6848,"ami":6849,"Ġparecen":6850,"Ġrestaurantes":6851,"ĠautÃ³n":6852,"Todos":6853,"esign":6854,"Ġuniversidad":6855,"Ġnacimiento":6856,"okies":6857,"uya":6858,"Ġperspectiva":6859,"Ġincluir":6860,"Ġhumor":6861,"Ã¡maras":6862,"Ġlla":6863,"Ġporta":6864,"Ġsomet":6865,"ĠCOM":6866,"ocal":6867,"ambre":6868,"rientes":6869,"enten":6870,"ence":6871,"Ġbajar":6872,"Ġmodern":6873,"orro":6874,"Ġreglas":6875,"ensiÃ³n":6876,"ĠtÃŃtulos":6877,"Ġasesin":6878,"inarias":6879,"Ġcerebro":6880,"Ġtalleres":6881,"Ġmalo":6882,"Ġpudiera":6883,"Ac":6884,"ivia":6885,"ĠAndalucÃŃa":6886,"ĠsÃ³l":6887,"Ġreca":6888,"ĠMujer":6889,"Ġinteg":6890,"Ġinfluencia":6891,"design":6892,"Ġcotid":6893,"ĠFestival":6894,"iona":6895,"aluÃ±a":6896,"Ġinteresantes":6897,"ĠutilizaciÃ³n":6898,"Ġlogra":6899,"eco":6900,"Ġcolegio":6901,"Ġhumanidad":6902,"Ġbatalla":6903,"anal":6904,"erta":6905,".[":6906,"ĠIm":6907,"Ġepiso":6908,"ĠdecoraciÃ³n":6909,"Ġintento":6910,"Ġgira":6911,"Ġescala":6912,"Ġaconte":6913,"arago":6914,"Ġgrav":6915,"ax":6916,"Ġcampos":6917,"esh":6918,"Ġexc":6919,"uaciÃ³n":6920,"Ġviviendas":6921,"ĠCÃ³rdoba":6922,"Ġcantante":6923,"Ġacabar":6924,"Ġtradicionales":6925,"IP":6926,"emat":6927,"icenci":6928,"Ġvay":6929,"Ġproto":6930,"Ġinteligencia":6931,"Ġ34":6932,"ecimiento":6933,"75":6934,"ĠGra":6935,"Ġplano":6936,"Ġbienestar":6937,"Ġdeclaraciones":6938,"Ġbolsa":6939,"ĠsÃŃntomas":6940,"Ãºan":6941,"ĠNatur":6942,"ĠEncuent":6943,"Ġargentino":6944,"Ġusando":6945,"Ġlanzamiento":6946,"Ġsentimientos":6947,"Ġcancel":6948,"Ġfas":6949,"ĠArm":6950,"aque":6951,"Ġtrae":6952,"Ġamiga":6953,"orear":6954,"ĠAcad":6955,"ĠdarÃ¡":6956,"Ġciertas":6957,"Ġrelacionadas":6958,"ĠdÃ©cadas":6959,"ĠpreparaciÃ³n":6960,"ĠcombinaciÃ³n":6961,"ĠazÃºcar":6962,"ĠId":6963,"ases":6964,"icano":6965,"Ġedificios":6966,"rica":6967,"Ġcuento":6968,"Ġhorario":6969,"Ġvigil":6970,"Ġmuebles":6971,"ĠEra":6972,"Ġopiniones":6973,"Ġprevia":6974,"Ġanot":6975,"Ġconsiderar":6976,"CIA":6977,"Ġtempor":6978,"ĠJer":6979,"Ġvosotros":6980,"ĠConst":6981,"ciales":6982,"ĠAlm":6983,"ney":6984,"ĠLondres":6985,"Ġcamis":6986,"Ġenter":6987,"ÑĢ":6988,"idaciÃ³n":6989,"Ġarr":6990,"ĠlÃŃderes":6991,"Ġesfuerzos":6992,"ĠGestiÃ³n":6993,"dios":6994,"Ġlogrado":6995,"Puede":6996,"Ġdelito":6997,"Ġofrecemos":6998,"Ġhosp":6999,"laga":7000,"Ġpromover":7001,"Ġexpan":7002,"ĠvÃ¡l":7003,"Ġcrea":7004,"Ġfarm":7005,"ĠLatino":7006,"Ġdesign":7007,"ĠCO":7008,"ĠPremio":7009,"Ġsof":7010,"Ġefectivo":7011,"mento":7012,"izadas":7013,"ĠÃ¡lb":7014,"ubes":7015,"Ġsosp":7016,"Ġfracas":7017,"desf":7018,"ister":7019,"Ġprofe":7020,"ĠSÃ³lo":7021,"Ġsil":7022,"Ġforman":7023,"Ġcambia":7024,"rios":7025,"Ġdirigido":7026,"Ġorganizado":7027,"ĠJohn":7028,"TR":7029,"Ġsing":7030,"Ġaver":7031,"usos":7032,"Ġdificultades":7033,"Ġacero":7034,"Ġregional":7035,"Ġseguimiento":7036,"eje":7037,"Ġdescanso":7038,"Ġlum":7039,"Ġprobable":7040,"Ġparticulares":7041,"Ġlong":7042,"Ġtuve":7043,"terrÃ¡n":7044,"Ġvestido":7045,"Ġbro":7046,"ĠMex":7047,"Ġ33":7048,"Ġasegurar":7049,"ĠAR":7050,"ĠProtecciÃ³n":7051,"Ġfactor":7052,"ĠOrd":7053,"ĠDerechos":7054,"Ġdiciendo":7055,"Ġviejo":7056,"til":7057,"ĠHasta":7058,"ĠIsrael":7059,"ĠAlb":7060,"Ġmira":7061,"Ġinterna":7062,"Ġejercicios":7063,"ezca":7064,"ĠCÃ¡":7065,"Ġdesf":7066,"Ġcorta":7067,"ĠMir":7068,"atamente":7069,"Ġconcierto":7070,"ĠnaciÃ³":7071,"Ġaltas":7072,"Ġganado":7073,"bra":7074,"Ã±ar":7075,"ĠcompaÃ±ero":7076,"Ġmirar":7077,"ĠjardÃŃn":7078,"Ġsocios":7079,"Ġiniciar":7080,"Ġconsultar":7081,"Ġprevisto":7082,"Ġ;":7083,"48":7084,"Ã©ut":7085,"Ġestablecimiento":7086,"Ġaprovechar":7087,"Ġ2005":7088,"emÃ¡tica":7089,"ĠPubl":7090,"ĠDecreto":7091,"Ġguitar":7092,"Ġgrad":7093,"aste":7094,"lament":7095,"ĠSegun":7096,"ĠDig":7097,"Ġjudicial":7098,"Ġterceros":7099,"Ġinvertir":7100,"Ġperros":7101,"Ġcolocar":7102,"Ġingreso":7103,"ress":7104,"ificaciones":7105,"ĠprevenciÃ³n":7106,"Ġmeter":7107,"ĠMov":7108,"So":7109,"Ġcrecer":7110,"ĠEnrique":7111,"Ġmapa":7112,"ĠVar":7113,"ĠÃŃnd":7114,"urado":7115,"ĠOn":7116,"Ġause":7117,"ĠestarÃ¡n":7118,"Ġconceptos":7119,"urg":7120,"esque":7121,"ĠPos":7122,"Ġcorrecto":7123,"Ġfan":7124,"Ġhermana":7125,"ĠpasiÃ³n":7126,"Ġmanip":7127,"icha":7128,"Ġeficaz":7129,"ĠimpresiÃ³n":7130,"Ñģ":7131,"Ġimper":7132,"iten":7133,"Ġcomprobar":7134,"Ġposicion":7135,"Ġpoca":7136,"Ġ150":7137,"Ġinfin":7138,"Ġpublicar":7139,"rÃ¡ficos":7140,"Ġposteriormente":7141,"Ġbus":7142,"Ġretro":7143,"Ġpositivo":7144,"ĠdiagnÃ³":7145,"Ġdivid":7146,"ĠBusc":7147,"ĠCastilla":7148,"Ġpenal":7149,"Ġseguramente":7150,"Ġfrance":7151,"Ġguard":7152,"ĠDem":7153,"Ġmuestran":7154,"Ġidentificar":7155,"Ġsexuales":7156,"Ġdibujos":7157,"Ġagrup":7158,"Ġalquiler":7159,"ni":7160,"ĠCataluÃ±a":7161,"Ġrefug":7162,"Ġtranquil":7163,"Ġobservar":7164,"Ġeje":7165,"ĠquizÃ¡":7166,"Ġmaestro":7167,"Ġocult":7168,"ĠcÃ¡r":7169,"Ġgustan":7170,"abel":7171,"Ġcitas":7172,"Comp":7173,"Ã³mica":7174,"Ġafirma":7175,"Ġencontraba":7176,"Ġescritor":7177,"Ġingredientes":7178,"Ġpond":7179,"Ġextraordin":7180,"Ġarena":7181,"Ġcorrer":7182,"Ġdescuento":7183,"bla":7184,"Ġblanca":7185,"udos":7186,"Ġincluido":7187,"ington":7188,"Ġespalda":7189,"Ġreconoce":7190,"ĠKe":7191,"Ġhojas":7192,"Ġdormir":7193,"Ġanuncio":7194,"Ġemprend":7195,"atorios":7196,"Â®":7197,"izan":7198,"Ġaparecer":7199,"igrantes":7200,"Ġcorrecta":7201,"Ġplena":7202,"Son":7203,"ĠJapÃ³n":7204,"IG":7205,"scar":7206,"ĠcomisiÃ³n":7207,"Ãºc":7208,"ames":7209,"Ġsupl":7210,"Ġprivile":7211,"elos":7212,"ĠEspaÃ±ola":7213,"Ġhotele":7214,"Ġefic":7215,"Ġhoteles":7216,"ĠLeer":7217,"ĠdemocrÃ¡":7218,"Ġpreparar":7219,"Ġhomenaje":7220,"IEN":7221,"Ġcamin":7222,"Ġmuertos":7223,"Ġhost":7224,"Ġtren":7225,"zon":7226,"iversario":7227,"ĠsueÃ±os":7228,"ĠAP":7229,"Ã³mico":7230,"brica":7231,"Ġclima":7232,"ĠespectÃ¡culo":7233,"Ġporcentaje":7234,"Ġentreten":7235,"aragoza":7236,"imamente":7237,"ĠComitÃ©":7238,"Ġamistad":7239,"Ġmort":7240,"Ġpareci":7241,"ADO":7242,"ĠDirector":7243,"ĠlÃŃmites":7244,"Ġcolectivo":7245,"38":7246,"Ġcoordin":7247,"sado":7248,"ĠDos":7249,"ideo":7250,"Ġevit":7251,"iam":7252,"Ġdil":7253,"Ġcint":7254,"Ġaventura":7255,"Ġnovia":7256,"Ġgastron":7257,"Ġcontras":7258,"ĠNavidad":7259,"Ġconvocatoria":7260,"mbol":7261,"Ġletras":7262,"ĠcapÃŃtulo":7263,"Ġmetal":7264,"ĠDiego":7265,"Ġafecta":7266,"ode":7267,"ĠrealizarÃ¡":7268,"ĠApple":7269,"Ġparecido":7270,"Ġcuadr":7271,"xx":7272,"Ġcombust":7273,"tando":7274,"Ġperu":7275,"pen":7276,"Ġanteriormente":7277,"ĠÃģngel":7278,"Ġ48":7279,"SOE":7280,"rÃŃan":7281,"Ġtanta":7282,"ustral":7283,"Ġaeropuerto":7284,"Ġaprop":7285,"Ġmonit":7286,"Ġautob":7287,"ester":7288,"emin":7289,"Ġpista":7290,"Ġestatal":7291,"ĠcÃ©lulas":7292,"39":7293,"Ġchat":7294,"Ġinmediato":7295,"Ġmoral":7296,"Ġcabe":7297,"Ġnorma":7298,"esl":7299,"Ġclaramente":7300,"Ã¡til":7301,"Ġmunicipios":7302,"Ġ195":7303,"Ġbl":7304,"Ġcientos":7305,"ĠelaboraciÃ³n":7306,"ituales":7307,"ĠdestacÃ³":7308,"ĠconvirtiÃ³":7309,"ĠOrde":7310,"Ġdenuncia":7311,"Ġvotos":7312,"Ġcercano":7313,"Ġprestig":7314,"ĠAsamblea":7315,"Ġagencia":7316,"jetas":7317,"atir":7318,"ĠIII":7319,"ĠAh":7320,"abiliz":7321,"Ġbonito":7322,"cen":7323,"Ġlibres":7324,"Ġinvestigadores":7325,"Ġesque":7326,"Ġempresarial":7327,"urs":7328,"ĠUru":7329,"Ġemociones":7330,"ĠCreo":7331,"ĠSiempre":7332,"ĠintegraciÃ³n":7333,"Ġalar":7334,"ĠprÃ©st":7335,"Ġelegido":7336,"Ġcoches":7337,"idel":7338,"cidos":7339,"ĠbotÃ³n":7340,"ĠAf":7341,"desh":7342,"uera":7343,"He":7344,"Ã©roe":7345,"ĠLle":7346,"Car":7347,"Ġpotenci":7348,"Ġaconse":7349,"Ġtierras":7350,"nidad":7351,"Ġconmigo":7352,"Ġactivo":7353,"Ġuniverso":7354,"ĠdiseÃ±os":7355,"Ġtriunfo":7356,"----":7357,"ĠBas":7358,"ĠvÃŃdeos":7359,"ĠvÃŃctima":7360,"ĠIl":7361,"Ġsujeto":7362,"ĠRadio":7363,"Ġ38":7364,"boles":7365,"Ġidioma":7366,"Ġpatrimonio":7367,"Ġmuerto":7368,"Ġsocio":7369,"Ġserio":7370,"Ġdra":7371,"Ġmac":7372,"sap":7373,"Ġrefor":7374,"Ġculpa":7375,"ĠCel":7376,"Ġestrella":7377,"Ġestancia":7378,"inales":7379,"MP":7380,"Ġ?":7381,"Ġaisl":7382,"Ġalcohol":7383,"Ġsignificado":7384,"Ġtrayect":7385,"Ġambiental":7386,"Ġbrazos":7387,"ĠSalvador":7388,"Ġpronunci":7389,"rema":7390,"arlas":7391,"37":7392,"Ġcombin":7393,"ĠEjecutivo":7394,"bia":7395,"ĠeconÃ³micas":7396,"Ġexactamente":7397,"Ġinterm":7398,"stos":7399,"Ġoficinas":7400,"Ġtrato":7401,"ĠDisp":7402,"Ġrevolucion":7403,"Ġfamoso":7404,"Ġcorrespondientes":7405,"ster":7406,"Deb":7407,"Ġdedicado":7408,"Ġcuello":7409,"ĠHace":7410,"Ġllegaron":7411,"Ġexitos":7412,"Ġcarreras":7413,"Ġmilitares":7414,"Ġlegales":7415,"Ġlater":7416,"Ġsonrisa":7417,"wa":7418,"ĠMis":7419,"Ġmental":7420,"Ġespectacular":7421,"ĠAlberto":7422,"Ġestren":7423,"Ġexhib":7424,"Ġbrindar":7425,"Ġdesh":7426,"Ġmolest":7427,"angel":7428,"Ġigualdad":7429,"ĠMel":7430,"Ġnoches":7431,"Ġcelebra":7432,"Ġplatos":7433,"ĠEcu":7434,"itat":7435,"ilio":7436,"ĠRub":7437,"ĠCampe":7438,"inter":7439,"Ġproporciona":7440,"Ġexige":7441,"ĠreparaciÃ³n":7442,"ĠCE":7443,"quilla":7444,"ĠSuperior":7445,"Ġcable":7446,"ĠcategorÃŃas":7447,"Ġaccesorios":7448,"Ġrect":7449,"ĠXV":7450,"ĠcontinÃºa":7451,"Ġparejas":7452,"Ġojo":7453,"Ġactiva":7454,"email":7455,"Ġmoderno":7456,"Ġadaptar":7457,"ĠPolÃŃtica":7458,"dados":7459,"Ġgobiernos":7460,"Ġmetodo":7461,"mer":7462,"Ġfinanciera":7463,"dicas":7464,"ercer":7465,"Ġespecialistas":7466,"ĠPh":7467,"arro":7468,"desm":7469,"ĠbaterÃŃa":7470,"Ġvuelo":7471,"Ġth":7472,"Ġmascul":7473,"Ġcurios":7474,"Ġversiones":7475,"quia":7476,"Ã³graf":7477,"ĠcientÃŃficos":7478,"47":7479,"ĠCÃ³digo":7480,"esÃŃa":7481,"Ġpasan":7482,"Ġvoto":7483,"Ã§":7484,"Ġgrasa":7485,"Ġpared":7486,"Ġguste":7487,"Ġlatino":7488,"ĠmontaÃ±a":7489,"Ġexces":7490,"Ġportal":7491,"ĠRu":7492,"Ġcifra":7493,"Ġquit":7494,"Ġnormativa":7495,"Ġadolescentes":7496,"IX":7497,"Ġom":7498,"Ġabsor":7499,"ĠinterpretaciÃ³n":7500,"Ġacondi":7501,"Ġmerece":7502,"Ġtestig":7503,"Ġsecreto":7504,"ĠleÃŃdo":7505,"ĠAutÃ³n":7506,"ĠBat":7507,"The":7508,"mob":7509,"ĠSch":7510,"abilidades":7511,"Ġseguidores":7512,"ĠBro":7513,"Ġmexicano":7514,"Ġprocedimientos":7515,"Ġjud":7516,"ĠTeatro":7517,"ĠAlf":7518,"isco":7519,"Ġbicic":7520,"Ġcriterios":7521,"Ġconsiderado":7522,"unciÃ³n":7523,"iforn":7524,"Ġoriginales":7525,"ĠsÃŃmbol":7526,"Ġcontigo":7527,"Ġemocional":7528,"ĠAndrÃ©s":7529,"ĠAra":7530,"ĠSobre":7531,"FE":7532,"ĠPDF":7533,"Ġejemplos":7534,"Ġ400":7535,"Ġdejan":7536,"Ġinteresa":7537,"Ġausencia":7538,"Ġimprescindi":7539,"ĠNÂº":7540,"Ġinstrumentos":7541,"cot":7542,"Ġcri":7543,"ĠelÃ©ctrica":7544,"Ġinn":7545,"Ġreco":7546,"Ġesencial":7547,"ĠindÃŃge":7548,"Ġelegante":7549,"ĠCant":7550,"hop":7551,"Ġgeneralmente":7552,"Ġvenir":7553,"100":7554,"ĠobligaciÃ³n":7555,"ĠJuegos":7556,"Ġdesm":7557,"amÃ¡":7558,"Ġaficion":7559,"li":7560,"sig":7561,"ĠAir":7562,"Ġbasado":7563,"Ġtum":7564,"Ġconces":7565,"Ġrese":7566,"Ġconviv":7567,"Ġprevio":7568,"Ġnovedades":7569,"ĠapariciÃ³n":7570,"daba":7571,"uario":7572,"Ġaleg":7573,"ĠfabricaciÃ³n":7574,"Ġsen":7575,"Ġequilibrio":7576,"oren":7577,"Ġfui":7578,"Ġarras":7579,"Ġrique":7580,"Ġanticip":7581,"ĠMuy":7582,"Ġplato":7583,"Ġbancos":7584,"ĠVis":7585,"its":7586,"Ġgasto":7587,"otor":7588,"ĠDa":7589,"05":7590,"Ġcomprob":7591,"cra":7592,"Ġtop":7593,"Ġexplic":7594,"PE":7595,"Ġventana":7596,"Ġcanales":7597,"ĠUnidad":7598,"Ġeficiencia":7599,"ĠMc":7600,"gica":7601,"ĠColegio":7602,"Ġtermina":7603,"sic":7604,"Ġtec":7605,"ĠNuestra":7606,"Ġfundamentales":7607,"alizÃ³":7608,"Ġhagan":7609,"Ġpasaj":7610,"Ġquerer":7611,"ÃŃna":7612,"Ð¾Ð":7613,"ciÃ³":7614,"Ġestudiante":7615,"Ġguardar":7616,"Ġlector":7617,"ĠClar":7618,"ĠfenÃ³meno":7619,"Ġune":7620,"Ġseguido":7621,"Ġtocar":7622,"Ġpreparado":7623,"Ġrespondi":7624,"Ġconferencia":7625,"urr":7626,"Ġdecidir":7627,"Ġincendi":7628,"Ġllor":7629,"Ġrepresentante":7630,"Sal":7631,"Ġtengas":7632,"SE":7633,"Ġtrim":7634,"rita":7635,"ĠganÃ³":7636,"Ġoperativo":7637,"ĠFacultad":7638,"Ġpodremos":7639,"Ġavance":7640,"genda":7641,"Ġninguno":7642,"Ġpermita":7643,"Ġdichos":7644,"Ġadopt":7645,"urÃŃa":7646,"ĠEqu":7647,"antemente":7648,"ĠUnido":7649,"Ã³mez":7650,"Ġbras":7651,"Int":7652,"Ġdulce":7653,"Ġenfoque":7654,"ĠFamil":7655,"Ġactuaciones":7656,"ĠTurismo":7657,"ĠpidiÃ³":7658,"lt":7659,"Ġinfraestructura":7660,"Ġmusc":7661,"ĠUruguay":7662,"undo":7663,"ser":7664,"Ġencab":7665,"radores":7666,"ificada":7667,"Ġtestim":7668,"lvar":7669,"ĠAlcal":7670,"Ġboda":7671,"Ġcoincid":7672,"Ġgustado":7673,"Ġsolar":7674,"Ġintegrantes":7675,"rimir":7676,"Ġllamadas":7677,"ĠdefiniciÃ³n":7678,"tante":7679,"lle":7680,"empo":7681,"Ġescribe":7682,"Ġpeda":7683,"Act":7684,"Ġtalento":7685,"atem":7686,"ĠMonte":7687,"ondas":7688,"ĠpublicÃ³":7689,"Ġseria":7690,"ĠtrÃ¡mite":7691,"Ġtabla":7692,"Ġresponde":7693,"ĠOrden":7694,"Ġvigente":7695,"44":7696,"Ġreport":7697,"Ġponen":7698,"Ġic":7699,"ĠArte":7700,"udio":7701,"Ġtrayectoria":7702,"Ġjugue":7703,"ĠAma":7704,"Ġpus":7705,"Ġgobernador":7706,"78":7707,"Ġreflej":7708,"Ġpanor":7709,"Ġinvestigaciones":7710,"Mientras":7711,"Ġdelicios":7712,"rel":7713,"venciones":7714,"Ġtrabajan":7715,"Ġadmit":7716,"cept":7717,"Ġgratuito":7718,"ĠrevisiÃ³n":7719,"ĠprogramaciÃ³n":7720,"gando":7721,"Ġcartas":7722,"ĠMÃ¡laga":7723,"obres":7724,"DI":7725,"habilit":7726,"Ġ2004":7727,"nerg":7728,"Ġpolvo":7729,"Ġconsumidores":7730,"Ġcandidatos":7731,"Ã³rico":7732,"Ġresuel":7733,"Ġdosis":7734,"Ġinmediatamente":7735,"Ġplazas":7736,"Ġalternativas":7737,"ĠRafael":7738,"ĠacompaÃ±ado":7739,"cionar":7740,"Ã¡culos":7741,"Ġvuelto":7742,"Ġadquis":7743,"Ġcelular":7744,"Ġarquitectura":7745,"ndas":7746,"vez":7747,"Ġmodificar":7748,"ĠEse":7749,"Ġinversiones":7750,"Ġdiferenci":7751,"ĠAsimismo":7752,"Ġnutr":7753,"inio":7754,"Ġcompetencias":7755,"ĠHumanos":7756,"Ġanti":7757,"imnas":7758,"Ġpiensa":7759,"ĠElla":7760,"ICO":7761,"ĠPuedes":7762,"ĠTrabaj":7763,"Ġaje":7764,"ĠtendrÃŃa":7765,"Ġtratamientos":7766,"Ġcolon":7767,"Ġapuesta":7768,"ĠdocumentaciÃ³n":7769,"ulto":7770,"ĠtransformaciÃ³n":7771,"Ġproc":7772,"Ġlectores":7773,"Ġrut":7774,"Ad":7775,"ĠdiseÃ±ado":7776,"Ġnumerosos":7777,"Ġpobreza":7778,"quito":7779,"alt":7780,"31":7781,"ucle":7782,"uenc":7783,"ĠdebÃŃa":7784,"ĠCir":7785,"OC":7786,"itis":7787,"ulada":7788,"torno":7789,"diz":7790,"Ġcargos":7791,"ĠfÃ³rm":7792,"ĠVÃŃ":7793,"Ġcompletar":7794,"Ġalt":7795,"Ġconsist":7796,"asas":7797,"Ġcifras":7798,"Ġprofundo":7799,"Ġreuniones":7800,"Ġdaba":7801,"Ã¨":7802,"Ġreemp":7803,"sito":7804,"logÃŃa":7805,"Ġnegra":7806,"ĠPSOE":7807,"ertos":7808,"Ġregiones":7809,"ĠagregÃ³":7810,"ieren":7811,"ÃįA":7812,"Ġvid":7813,"ĠPopular":7814,"Ġtendencias":7815,"ĠclasificaciÃ³n":7816,"rana":7817,"ĠPadre":7818,"SA":7819,"'.":7820,"Ġ75":7821,"rome":7822,"erales":7823,"ori":7824,"ĠcontemporÃ¡n":7825,"ĠTransp":7826,"ione":7827,"ĠocurriÃ³":7828,"ĠSim":7829,"Ġaspira":7830,"ĠArtes":7831,"ĠprisiÃ³n":7832,"Ġren":7833,"Ġsinc":7834,"by":7835,"ĠÃ¡lbum":7836,"Ġformulario":7837,"Ġmedicamentos":7838,"Ġdirigida":7839,"cÃ³":7840,"ĠÃļ":7841,"ĠconcentraciÃ³n":7842,"Ġexpectativas":7843,"ĠterminÃ³":7844,"lÃŃn":7845,"Ġcookies":7846,"Am":7847,"Ã¡ndolo":7848,"32":7849,"sgra":7850,"Ġcomplicado":7851,"ĠbÃ¡sicos":7852,"Ġnotas":7853,"ĠAlex":7854,"ÃŃc":7855,"Ġseries":7856,"Ġpropone":7857,"Ġalber":7858,"Ġactriz":7859,"amina":7860,"Ġembarazo":7861,"ĠCD":7862,"Ġtoca":7863,"Ġhomb":7864,"Ġinqu":7865,"Ġcubrir":7866,"Ġgraves":7867,"Ġlaborales":7868,"hi":7869,"atario":7870,"Cada":7871,"Ġcuerpos":7872,"Ġmut":7873,"Ġquitar":7874,"Ġcristal":7875,"Ġtriste":7876,"ĠIgu":7877,"Ġdocentes":7878,"Ġdesarrolla":7879,"Ġvers":7880,"ĠNorm":7881,"ĠAtl":7882,"Ġeconom":7883,"wer":7884,"Ġdesee":7885,"Ġsobreviv":7886,"ĠSeb":7887,"ĠplÃ¡stico":7888,"Ġempresarios":7889,"Ġcontratos":7890,"Ġsober":7891,"Ġvenci":7892,"Ġataques":7893,"Ġconocidos":7894,"ĠOrganizaciÃ³n":7895,"Ġvirtual":7896,"Ġinstalar":7897,"Ġdefinir":7898,"ĠLuc":7899,"ĠsÃº":7900,"ĠDÃŃaz":7901,"ego":7902,"Ġprotagonistas":7903,"Ġfortal":7904,"Ġpiernas":7905,"Ġplas":7906,"Ã¡ticamente":7907,"Ġprofundidad":7908,"Ġmez":7909,"Ġminist":7910,"utamente":7911,"Estos":7912,"Ġtol":7913,"ĠmÃ¡g":7914,"Ġgir":7915,"Ġcoleg":7916,"Ġintelectual":7917,"46":7918,"pet":7919,"Ġrock":7920,"Ġchocol":7921,"ĠMuchas":7922,"icardo":7923,"Ġsacr":7924,"ĠEconomÃŃa":7925,"ions":7926,"Ġna":7927,"ganos":7928,"itarias":7929,"nciones":7930,"Ġrodil":7931,"oya":7932,"Ġgalle":7933,"Ġmando":7934,"Ġeducativo":7935,"ript":7936,"Ġcae":7937,"Ġpedi":7938,"Ġmultip":7939,"Ġrecomiendo":7940,"Ġmunicipales":7941,"Ġbols":7942,"ĠFlor":7943,"Ġbanc":7944,"ĠcomparaciÃ³n":7945,"teros":7946,"ĠalemÃ¡n":7947,"Ġdeterminado":7948,"Ġolvidar":7949,"Ġborde":7950,"Ġcopia":7951,"Ġliqu":7952,"ĠBra":7953,"ĠHol":7954,"tencia":7955,"erdo":7956,"Ġcrim":7957,"Ġdor":7958,"Ġinteract":7959,"eno":7960,"Ġfiguras":7961,"Ġacuerdos":7962,"ĠAlgunos":7963,"Ġefectu":7964,"Ġposiciones":7965,"UM":7966,"ÃŃv":7967,"umpl":7968,"ĠEdu":7969,"ĠmontÃ³n":7970,"ĠaÃ©":7971,"Ãºr":7972,"ĠGÃ³mez":7973,"ĠllevarÃ¡":7974,"ĠDu":7975,"Ġparal":7976,"Ġsep":7977,"Ġrepro":7978,"Ġtomando":7979,"ĠMujeres":7980,"ĠvÃŃas":7981,"ĠfilosofÃŃa":7982,"ĠcontÃ³":7983,"Ġsesiones":7984,"Ġtelevis":7985,"Ġgoles":7986,"ĠhistÃ³rica":7987,"gaciÃ³n":7988,"Ġafront":7989,"Ġcontrar":7990,"Ġcobertura":7991,"Ġnormalmente":7992,"ÃŃcula":7993,"Ġrival":7994,"199":7995,"ĠcÃ¡maras":7996,"Ġcambiado":7997,"Ġintercambio":7998,"ĠtensiÃ³n":7999,"ĠRoma":8000,"Luego":8001,"ĠWill":8002,"ĠBien":8003,"âĢĻ.":8004,"Ġtarjetas":8005,"Ġlongitud":8006,"Ġevidente":8007,"iden":8008,"onios":8009,"Ġ2003":8010,"ĠJim":8011,"Ġhaz":8012,"ĠÃģlvar":8013,"Ġset":8014,"ĠCatal":8015,"Ġrealizando":8016,"Fin":8017,"Ġconstituye":8018,"orld":8019,"Ġproyect":8020,"iremos":8021,"Ġdefine":8022,"ĠtransmisiÃ³n":8023,"Ġapoyar":8024,"dete":8025,"ĠGuadal":8026,"voz":8027,"Ġgrados":8028,"Ġvisual":8029,"Ġcru":8030,"Ġproveedores":8031,"ĠsatisfacciÃ³n":8032,"Ġcombate":8033,"Ġ37":8034,"Ġ2019":8035,"Ã©sp":8036,"Ġalf":8037,"Ġrepart":8038,"ocas":8039,"ĠVall":8040,"Ġextremo":8041,"ĠpodÃ©is":8042,"Ġaparte":8043,"Ġgay":8044,"rosoft":8045,"Ġfisc":8046,"09":8047,"Ġoccid":8048,"Ġmarido":8049,"Ġmaneras":8050,"Ġinterno":8051,"Ġfestival":8052,"entan":8053,"iadas":8054,"Ġpuente":8055,"Ġubicada":8056,"ugÃŃa":8057,"ĠFi":8058,"fl":8059,"Ġpienso":8060,"ustriales":8061,"Ġrig":8062,"Ġregreso":8063,"Ġdiscut":8064,"ĠcÃ³modo":8065,"Ġsiguiendo":8066,"ĠciudadanÃŃa":8067,"Ġrico":8068,"Ġmargen":8069,"ĨĴ":8070,"Ġunif":8071,"06":8072,"ĠHernÃ¡ndez":8073,"Ġreper":8074,"Ġinvitados":8075,"Ġrelacionado":8076,"Ġcerve":8077,"Ġreconocido":8078,"Ġhipot":8079,"Ġdesayuno":8080,"ĠrevoluciÃ³n":8081,"Ġhermosa":8082,"ĠactualizaciÃ³n":8083,"ĠZaragoza":8084,"emÃ¡ticas":8085,"Ġsh":8086,"Ġindependencia":8087,"Ġsiglos":8088,"ĠMario":8089,"dud":8090,"Ġcuestion":8091,"Ġrecop":8092,"Ġ<":8093,"Ġaniversario":8094,"ague":8095,"ĠInvestigaciÃ³n":8096,"ĠAlejandro":8097,"leto":8098,"ĠViv":8099,"Ġextranjero":8100,"Ġconve":8101,"anca":8102,"Ġretras":8103,"ĠtomÃ³":8104,"Ġbasada":8105,"Ġirre":8106,"cÃ³n":8107,"Ġaumenta":8108,"ĠcÃ¡rcel":8109,"ĠLima":8110,"Ġdestru":8111,"aterra":8112,"ĠMol":8113,"Ġalojamiento":8114,"Ġpaseo":8115,"Ġaer":8116,"ĠDiseÃ±o":8117,"ĠGob":8118,"hes":8119,"Ġenfoc":8120,"Ġnace":8121,"ĠexpresÃ³":8122,"ĠEnerg":8123,"ny":8124,"Ġparedes":8125,"Ġsacerdo":8126,"ĠPrimera":8127,"Esc":8128,"Ġinjust":8129,"Ġabogado":8130,"ifornia":8131,"Ġinteligente":8132,"dras":8133,"Ġmorir":8134,"Ġartif":8135,"Pod":8136,"ĠProvinci":8137,"Ġdigitales":8138,"Ġence":8139,"raron":8140,"ĠGa":8141,"ĠmenÃº":8142,"'s":8143,"Ġox":8144,"ĠconfiguraciÃ³n":8145,"08":8146,"ĠCarmen":8147,"Ġdud":8148,"ĠvÃŃnc":8149,"Ġamenaza":8150,"07":8151,"Asimismo":8152,"ĠGranada":8153,"Ġletra":8154,"ĠdÃ©b":8155,"Ġcontactar":8156,"sb":8157,"Ġespiritual":8158,"Ġdipl":8159,"Ġlook":8160,"Ġentrenador":8161,"ĠpÃ¡r":8162,"OD":8163,"Ã¡stica":8164,"Ġmultitud":8165,"Ġlidera":8166,"Ġago":8167,"ĠdiagnÃ³stico":8168,"Ġsucedi":8169,"ĠinscripciÃ³n":8170,"Ġ55":8171,"Ġconclu":8172,"Ġrecomendable":8173,"ĠextensiÃ³n":8174,"ĠEcuador":8175,"Ġconsejo":8176,"Ġorganismos":8177,"Ġintensidad":8178,"Ġentus":8179,"cor":8180,"ĠmÃ¡quinas":8181,"Ġcapacidade":8182,"Ġrecomienda":8183,"Ġaudiencia":8184,"\":":8185,"Ġarma":8186,"rente":8187,"Ġcapacidades":8188,"49":8189,"Ġservidor":8190,"Ġdejamos":8191,"gotÃ¡":8192,"ear":8193,"Ġpensado":8194,"Ġhaces":8195,"2017":8196,"Ġdependiendo":8197,"Ġextrem":8198,"Ġformado":8199,"Ġdientes":8200,"Ġves":8201,"ĠLÃŃ":8202,"ĠnaciÃ³n":8203,"Ġcapa":8204,"Ġrespectivamente":8205,"ĠAbr":8206,"Ġaqui":8207,"iosas":8208,"Ġveinte":8209,"Algun":8210,"Ġtenia":8211,"Ġfinanciero":8212,"apas":8213,"Ġdemostrado":8214,"Ġperiodistas":8215,"ĠlegislaciÃ³n":8216,"ĠPÃºblico":8217,"Ġgana":8218,"Ġtejido":8219,"ĠMus":8220,"Ġcho":8221,"Ġfranqu":8222,"Ġretra":8223,"Ġsorte":8224,"Ġfa":8225,"uan":8226,"Ġvital":8227,"Ġgor":8228,"Ġinstitucional":8229,"Ġrestos":8230,"Ġsufrir":8231,"Ġdete":8232,"ĠUsu":8233,"Ġpude":8234,"antiles":8235,"Ġconductor":8236,"Ġlisto":8237,"ĠDar":8238,"Ġsant":8239,"Ġdarse":8240,"ĠNegro":8241,"ĠNaciÃ³n":8242,"Ġacord":8243,"gano":8244,"ĠFoto":8245,"Ġcrema":8246,"ĠreflexiÃ³n":8247,"Ġdesesp":8248,"Ġfabric":8249,"ĠJun":8250,"Ġvirus":8251,"ĠNicol":8252,"Bueno":8253,"Ġluces":8254,"Ġcontinua":8255,"Ġemergencia":8256,"Ġinterf":8257,"Ġtomado":8258,"ĠencontrarÃ¡s":8259,"Ġhecha":8260,"ĠConsult":8261,"ĠtendrÃ¡s":8262,"ĠHaci":8263,"ĠaprobaciÃ³n":8264,"Ġdelitos":8265,"Ġdeportivo":8266,"Ġcerem":8267,"ĠWar":8268,"Ġcomodidad":8269,"Ã³f":8270,"ĠÃ¡rboles":8271,"Ġeficiente":8272,"ĠGrande":8273,"Ġmolino":8274,"ĠaviÃ³n":8275,"Ġglob":8276,"sol":8277,"ĠaÃ±ade":8278,"ĠiniciÃ³":8279,"Par":8280,"ĠArch":8281,"Uno":8282,"Ġdijeron":8283,"eced":8284,"Ġtiro":8285,"Ġextranjeros":8286,"ĠÃ©stos":8287,"Ġinformes":8288,"entimiento":8289,"Ġinstrumento":8290,"Ġrealizadas":8291,"Ġevidencia":8292,"tin":8293,"Ġexplos":8294,"ĠSU":8295,"iÃ©ndo":8296,"enes":8297,"atillas":8298,"Ġdiaria":8299,"CH":8300,"Ġimpuesto":8301,"ĠBor":8302,"Ġfilm":8303,"Ġasuntos":8304,"Ġbrasile":8305,"Ġcreen":8306,"GA":8307,"Ġacabado":8308,"rible":8309,"Ġterraza":8310,"edir":8311,"hor":8312,"ĠTex":8313,"Co":8314,"ĠdeberÃŃan":8315,"Ġmoderna":8316,"Ġinteresados":8317,"Ġcontamos":8318,"Ġfacilidad":8319,"Ġanaliz":8320,"ellano":8321,"izÃ³":8322,"undir":8323,"ĠRiv":8324,"Ġquieras":8325,"ider":8326,"rÃ³leo":8327,"Ġrelato":8328,"Ġemail":8329,"Ġignor":8330,"Ġit":8331,"Ġcircuito":8332,"Ġtera":8333,"ĠUE":8334,"Ġturno":8335,"Ġparo":8336,"ÃŃmp":8337,"Ġabsolutamente":8338,"Â¡Â¡":8339,"ãĥ":8340,"ĠAgencia":8341,"Ġprofunda":8342,"Ã³logos":8343,"Ġpublicada":8344,"Ġdivertido":8345,"Ãºp":8346,"arles":8347,"Ġtable":8348,"ĠpreocupaciÃ³n":8349,"Ġpobres":8350,"ring":8351,"Ġdedic":8352,"Ġreduce":8353,"ĠraÃŃz":8354,"Ġreloj":8355,"Ġpreviamente":8356,"Ġhablamos":8357,"Ġdocente":8358,"amas":8359,"ĠestrÃ©s":8360,"Ġdirige":8361,"imit":8362,"Â©":8363,"iental":8364,"ĠBlack":8365,"Ġcinta":8366,"Ġnumerosas":8367,"ĠSebast":8368,"Cons":8369,"Ġcorrectamente":8370,"@@":8371,"entando":8372,"ĠGer":8373,"Ġproductores":8374,"ĠCastro":8375,"Ġcomentar":8376,"Ġdiscrim":8377,"ĠOro":8378,"Ġfederal":8379,"ĠiPhone":8380,"Ġprevenir":8381,"Ġdescarga":8382,"Ġactualiz":8383,"ĠâĨĴ":8384,"Ġreferente":8385,"ĠMos":8386,"Ġdiversidad":8387,"ĠcientÃŃfico":8388,"Ġestadio":8389,"Ġexpul":8390,"ĠmÃŃnima":8391,"Ġ65":8392,"Ġponerse":8393,"idal":8394,"Ġinfancia":8395,"Ġbajos":8396,"unas":8397,"ĠHD":8398,"allar":8399,"Ġasistentes":8400,"ĠProp":8401,"Ġlament":8402,"ĠencontrÃ³":8403,"Ġmagia":8404,"Ã¡nicos":8405,"Ġalumno":8406,"Ġimagin":8407,"ulte":8408,"nrique":8409,"bamos":8410,"Ġenlaces":8411,"ĠconversaciÃ³n":8412,"Ġeditorial":8413,"ragÃ³n":8414,"ĠPalacio":8415,"...]":8416,"Ġmedicina":8417,"ĠVirgen":8418,"Ġinforma":8419,"Ġlicencia":8420,"ĠIr":8421,"ĠÃ¡rbol":8422,"esgra":8423,"tique":8424,"ĠestarÃŃa":8425,"desgra":8426,"Ġcero":8427,"ivales":8428,"estro":8429,"ĠPet":8430,"Estamos":8431,"pes":8432,"Ġpertenece":8433,"Resp":8434,"ĠcomentÃ³":8435,"rate":8436,"Ġequival":8437,"ornos":8438,"ĠDeport":8439,"Ġahorro":8440,"Ġtotalidad":8441,"Ġcerrado":8442,"Ġend":8443,"ĠTodas":8444,"ĠextraÃ±o":8445,"Ġapas":8446,"IR":8447,"ricidad":8448,"ĠCarta":8449,"ĠdifusiÃ³n":8450,"edo":8451,"undaria":8452,"ĠSoy":8453,"SÃŃ":8454,"ĠcampeÃ³n":8455,"fal":8456,"acos":8457,"Ġgracia":8458,"Ġperteneci":8459,"ieres":8460,"Ġocurrido":8461,"ĠexplotaciÃ³n":8462,"cedido":8463,"ÃŃdos":8464,"Ġcena":8465,"ĠSit":8466,"ĠelectrÃ³nica":8467,"Ġobligaciones":8468,"Ġdiscapacidad":8469,"ieta":8470,"Ġexclusivamente":8471,"ĠRicardo":8472,"Ġdisfru":8473,"reros":8474,"Ġsemej":8475,"ĠpeticiÃ³n":8476,"Ġdificultad":8477,"Ġestructuras":8478,"Ġdias":8479,"Ġfrag":8480,"rigo":8481,"Ġcach":8482,"Ġcole":8483,"umbres":8484,"entÃ³":8485,"ĠRosa":8486,"ugal":8487,"ĠPodemos":8488,"Ġitaliano":8489,"ĠBern":8490,"Ġhambre":8491,"ĠdeclarÃ³":8492,"Ġdedicada":8493,"Ġdrogas":8494,"Col":8495,"Ġexclusiva":8496,"Ġdesgra":8497,"ĠfinanciaciÃ³n":8498,"Ġfot":8499,"uv":8500,"urias":8501,"Ha":8502,"glaterra":8503,"ĠContin":8504,"ĠilusiÃ³n":8505,"ĠconservaciÃ³n":8506,"Ġsom":8507,"dr":8508,"ĠStar":8509,"ĠPARA":8510,"Ġtercero":8511,"Ġtransport":8512,"Ġimplant":8513,"uca":8514,"Ġaportar":8515,"Ġcompuesto":8516,"Ġplen":8517,"Ġconsci":8518,"ges":8519,"Ġsuperiores":8520,"damos":8521,"ĠcrÃŃticas":8522,"Ġpunta":8523,"Ġesencia":8524,"Ġ39":8525,"Ġproducido":8526,"65":8527,"Ġencargado":8528,"deg":8529,"ĠNuestro":8530,"Ã¡rez":8531,"Ġllevaba":8532,"Ġancho":8533,"Ġantiguos":8534,"Ġaux":8535,"Ġconflictos":8536,"cado":8537,"Ġganador":8538,"ĠpoesÃŃa":8539,"dador":8540,"ĠAntes":8541,"Ġfinancieros":8542,"Ġinme":8543,"Ġproducen":8544,"Ġvisu":8545,"Fue":8546,"Ġavances":8547,"Ġexceso":8548,"idaridad":8549,"ĠPaÃŃs":8550,"Ġtecho":8551,"Ġrecha":8552,"df":8553,"Ġefectiva":8554,"ĠAS":8555,"Ã±ez":8556,"ĠFelipe":8557,"Ġusado":8558,"ÃŃculas":8559,"iber":8560,"Ġelimin":8561,"ĠBolivia":8562,"lesias":8563,"ĠEEUU":8564,"Estas":8565,"Ġrural":8566,"izaciones":8567,"Enc":8568,"Ġaporta":8569,"abas":8570,"elaciÃ³n":8571,"entados":8572,"ĠexcepciÃ³n":8573,"ĠEsa":8574,"torias":8575,"Ġayudan":8576,"Ġexamen":8577,"ĠPS":8578,"ienden":8579,"indic":8580,"Ġsalen":8581,"Ġconducta":8582,"Ġtranquilidad":8583,"Ġvideoj":8584,"ĠEduardo":8585,"Ġlesiones":8586,"Ġvenido":8587,"omun":8588,"ĠBil":8589,"Ġiban":8590,"Ġpaquete":8591,"âĢ¦âĢ¦":8592,"Ġvuestra":8593,"cione":8594,"UD":8595,"Ġllevo":8596,"ĠreacciÃ³n":8597,"Ġhierro":8598,"ĠhÃŃ":8599,"Ġhorno":8600,"Ġtonel":8601,"ĠCalifornia":8602,"ĠClas":8603,"Ã³lico":8604,"Ġbarra":8605,"ĠSir":8606,"Ġexistentes":8607,"Ã³vil":8608,"ision":8609,"arencia":8610,"ĠDomingo":8611,"ĠreligiÃ³n":8612,"ĠautorizaciÃ³n":8613,"Ġsaludo":8614,"Ġbotel":8615,"Ġconsciente":8616,"ÃŃci":8617,"ips":8618,"Ġencuentros":8619,"Ġocupa":8620,"Ay":8621,"Ġequivoc":8622,"ZA":8623,"ning":8624,"Ġinteresado":8625,"04":8626,"Ġcaminos":8627,"ĠHombre":8628,"Ġluchar":8629,"Ġsociedade":8630,"Ġruido":8631,"ĠBogotÃ¡":8632,"Ġpositiva":8633,"ĠSud":8634,"ierte":8635,"ĠControl":8636,"Ġcicl":8637,"americanos":8638,"Ġasistir":8639,"Ġcomedor":8640,"Ġsaludable":8641,"ĠdaÃ±":8642,"Ġpagos":8643,"Ġsociedades":8644,"Ġresidencia":8645,"rabe":8646,"Ġdistinto":8647,"Ġocul":8648,"ĀĀĀĀĀĀĀĀ":8649,"Ġpendiente":8650,"Ġromper":8651,"ĠInglaterra":8652,"Ġcreatividad":8653,"Ġtendremos":8654,"ĠPoder":8655,"Ġcompens":8656,"ĠrecepciÃ³n":8657,"Ġplataformas":8658,"Ġesperaba":8659,"ĠestÃ©tica":8660,"Ġriqueza":8661,"ribe":8662,"ĠLOS":8663,"ĠIndia":8664,"igar":8665,"Ġdirectora":8666,"Ġafil":8667,"mag":8668,"ĠOficial":8669,"Ġpermitido":8670,"Ġcolorear":8671,"Ġtemporal":8672,"ĠIP":8673,"ĠmÃ³d":8674,"Ġatractivo":8675,"rÃ¡ficas":8676,"terÃŃa":8677,"uyo":8678,"nan":8679,"Ġ2002":8680,"Ġautos":8681,"ah":8682,"Ġdestin":8683,"Ġescla":8684,"Ġconfort":8685,"Ġsecund":8686,"ĠcampaÃ±as":8687,"Ġll":8688,"Ġrecetas":8689,"Ġemocion":8690,"Res":8691,"ĠQuer":8692,"Ġrecuerdos":8693,"onemos":8694,"Ġinver":8695,"nit":8696,"Ġbil":8697,"ĠEspaÃ±ol":8698,"Ġgigante":8699,"Ġculp":8700,"Ġmecanismos":8701,"Ġlee":8702,"Ver":8703,"acciones":8704,"Ġinstante":8705,"Ġdescribe":8706,"orea":8707,"desl":8708,"Ġchocolate":8709,"Ġalb":8710,"Ġindividuales":8711,"icho":8712,"Ġuniversidades":8713,"atorias":8714,"Ġintenta":8715,"BC":8716,"Ġflujo":8717,"ueble":8718,"ĠdiscusiÃ³n":8719,"imidad":8720,"Ãºe":8721,"aunque":8722,"ĠNaciones":8723,"venil":8724,"Ġpiloto":8725,"AquÃŃ":8726,"Ġigualmente":8727,"Ġ2001":8728,"Ġempuj":8729,"Ġlabios":8730,"Ġfuese":8731,"Ġbandas":8732,"Ġinstrucciones":8733,"ĠExt":8734,"Ġincluidos":8735,"ĠÃ¡nimo":8736,"ĠIncluso":8737,"ĠComunicaciÃ³n":8738,"enrique":8739,"ĠHerm":8740,"Ġafectados":8741,"reci":8742,"Ġeg":8743,"ĠSantos":8744,"Ġcuarta":8745,"Ġperse":8746,"fos":8747,"Ġconvenio":8748,"lay":8749,"ĠEstudios":8750,"Ġagar":8751,"Ġagregar":8752,"Ġfrontera":8753,"Ġpodamos":8754,"risto":8755,"ule":8756,"ĠcuÃ¡les":8757,"Ġpura":8758,"ogrÃ¡fica":8759,"ĠHor":8760,"ĠMayor":8761,"ĠtraducciÃ³n":8762,"ĠelÃ©ctrico":8763,"Ġbrillante":8764,"ĠCultural":8765,"Ġpercib":8766,"Ġclaves":8767,"ĠIV":8768,"Ġpic":8769,"Ġcantidades":8770,"sast":8771,"emento":8772,"Ġoscuro":8773,"Ġsombra":8774,"Ġampliar":8775,"cciones":8776,"ĠcooperaciÃ³n":8777,"Ġmaestros":8778,"Ġescritura":8779,"asis":8780,"Ġpensamientos":8781,"Ġcaminar":8782,"Ġrebel":8783,"istemas":8784,"ĠdivisiÃ³n":8785,"Ġaplica":8786,"Ġtrabajador":8787,"Ġreproduc":8788,"Ġadicionales":8789,"Ġveter":8790,"........":8791,"Ġutil":8792,"Ġalmacenamiento":8793,"Ġceb":8794,"Publ":8795,"ĠUsted":8796,"inch":8797,"Ġpaisaje":8798,"ĠRegistro":8799,"Ġtemperaturas":8800,"Ġdisminu":8801,"ĠGabri":8802,"ĠuniÃ³n":8803,"ĠmÃ©dica":8804,"mÃ¡s":8805,"Ã³nimo":8806,"toÃ±o":8807,"Ãļ":8808,"Ġmonum":8809,"Ġbajas":8810,"ĠprofesiÃ³n":8811,"Ġeducativa":8812,"Ġdesl":8813,"Ġfum":8814,"ĠSue":8815,"Ġromp":8816,"ashington":8817,"Ġfinalizar":8818,"ÃŃg":8819,"Ġtome":8820,"Ġsalido":8821,"Ġfilt":8822,"fil":8823,"Ġnecesitamos":8824,"gaz":8825,"Ġger":8826,"Ġenrique":8827,"66":8828,"Ġmoneda":8829,"ĠmanifestÃ³":8830,"Ġdocumental":8831,"Ġrecre":8832,"Ġestric":8833,"Ġcuantos":8834,"Ġ!":8835,"ĠMejor":8836,"Ġabsoluto":8837,"Ġquieran":8838,"An":8839,"ĠpodÃŃan":8840,"Ġintroducir":8841,"ija":8842,"rand":8843,"-.":8844,"ĠVan":8845,"Ġdemuestra":8846,"Ġcuidados":8847,"ĠelectrÃ³nicos":8848,"MI":8849,"stagram":8850,"Ġnacido":8851,"Ã³t":8852,"Ġresumen":8853,"ĠRio":8854,"ĠProyecto":8855,"Ġatrib":8856,"Ġï":8857,"Ġarque":8858,"Ġmetro":8859,"Ġbalance":8860,"Ġencabez":8861,"cada":8862,"Ġimpart":8863,"Ġfirme":8864,"ĠcariÃ±o":8865,"ĠDra":8866,"Ġdebut":8867,"ĠQuÃ©":8868,"ĠMu":8869,"Ġcuyos":8870,"Ġestabilidad":8871,"Ġperju":8872,"adÃ¡":8873,"ĠMicrosoft":8874,"Ġbarco":8875,"Ġfabricante":8876,"Ġespecialista":8877,"Ġtrimestre":8878,"Ġlados":8879,"Ġdimensiones":8880,"Ġjuega":8881,"Ġpublic":8882,"uco":8883,"ĠPlay":8884,"Ġnomin":8885,"Ġpredic":8886,"uran":8887,"Ġurbano":8888,"Ã¡ntico":8889,"ĠmostrÃ³":8890,"mobili":8891,"Ġadop":8892,"utor":8893,"ĠbÃ¡sico":8894,"Ã³nicas":8895,"ĠmÃºsc":8896,"ArtÃŃculo":8897,"nta":8898,"ĠEsper":8899,"Ġinsist":8900,"Emp":8901,"âĢ¦)":8902,"ĠPersonal":8903,"ĠnÃºc":8904,"pr":8905,"Ġhoja":8906,"atÃŃa":8907,"ĠAuto":8908,"Ġinex":8909,"ĠmuchÃŃsimo":8910,"ĠejÃ©rcito":8911,"ĠcomposiciÃ³n":8912,"ĠBueno":8913,"ĠimplementaciÃ³n":8914,"ĠEstoy":8915,"Ġeuropeo":8916,"ĠmuriÃ³":8917,"Ġcontrad":8918,"Ġrecomendaciones":8919,"ĠDiario":8920,"istar":8921,"Ġcaut":8922,"Ġcertificado":8923,"Ġagenda":8924,"ucar":8925,"onald":8926,"Ġingenier":8927,"Ġconstitucional":8928,"88":8929,"Ã©mica":8930,".âĢĶ":8931,"ĠTemp":8932,"ALES":8933,"Ġhermoso":8934,"].":8935,"Ġusan":8936,"Ġcalendario":8937,"usto":8938,"CIONES":8939,"ĠperdiÃ³":8940,"Ġbosque":8941,"Ġurban":8942,"nve":8943,"Ġjugando":8944,"Ġinstancia":8945,"Ġentusias":8946,"Ġindividuo":8947,"ĠxD":8948,"ĠestÃ¡ndar":8949,"Hasta":8950,"Ġagente":8951,"uestras":8952,"ĠdesempeÃ±o":8953,"Ġfabricantes":8954,"Ġproven":8955,"Ġrueda":8956,"Ġiniciativas":8957,"Ġinmediata":8958,"Ġindividuos":8959,"ari":8960,"Ġimporte":8961,"Ġrendi":8962,"MS":8963,"enve":8964,"ĠdesempeÃ±":8965,"ĠAdo":8966,"ejos":8967,"Ġnaran":8968,"Ġirreg":8969,"amin":8970,"Ġprimavera":8971,"lante":8972,"Ġejercer":8973,"ĠadaptaciÃ³n":8974,"Ġculo":8975,"ĠExter":8976,"Ġbailar":8977,"ĠseÃ±ora":8978,"Ġorganizar":8979,"ĠTi":8980,"Ġpros":8981,"teo":8982,"lie":8983,"Ġpermiso":8984,"bue":8985,"Ġeuropeos":8986,"UT":8987,"Ġprivileg":8988,"ÃŃtico":8989,"Ġmarch":8990,"ĠUnidas":8991,"entarios":8992,"ĠDigital":8993,"Ġciudadano":8994,"vin":8995,"ulaciones":8996,"ĠÃŃndice":8997,"ĠReyes":8998,"ĠDatos":8999,"Ġhig":9000,"Ġrutas":9001,"Ġuniversal":9002,"ĠProvincial":9003,"Ġturistas":9004,"Ġdamos":9005,"Ġmadres":9006,"ĠSy":9007,"Ġros":9008,"taria":9009,"uad":9010,"ubern":9011,"Ġtont":9012,"Ġdiscos":9013,"iner":9014,"ajaja":9015,"Ġempie":9016,"Ġtratando":9017,"Ġexpresa":9018,"ĠcientÃŃfica":9019,"ĠcaracterÃŃstica":9020,"Ġponiendo":9021,"olit":9022,"ĠAmbiente":9023,"ĠbaÃ±":9024,"ĠpetrÃ³leo":9025,"ĠFal":9026,"ĠSierra":9027,"ĠQuiz":9028,"Ġpasajeros":9029,"Ġllegando":9030,"Ġevolucion":9031,",,":9032,"zcan":9033,"onÃ©s":9034,"Ġdibujo":9035,"Ġregistrado":9036,"ãĤ":9037,"uerzo":9038,"Ġfortale":9039,"Ġescapar":9040,"Ġdedos":9041,"Ġtranquilo":9042,"Ġcrey":9043,"atemala":9044,"ĠAmeric":9045,"ĠmamÃ¡":9046,"Ġbeso":9047,"taron":9048,"mentos":9049,"Ġrequieren":9050,"ĠcumpleaÃ±os":9051,"Ġcriterio":9052,"Ġutilidad":9053,"Ġbasa":9054,"ĠÃ³rganos":9055,"Ġplayas":9056,"Ġagradecer":9057,"ĠBlanco":9058,"Ġmadr":9059,"Ġenemigo":9060,"Ġtraer":9061,"ĠTener":9062,"ieto":9063,"emor":9064,"Ġmete":9065,"Ġdespues":9066,"cimientos":9067,"Ġdepart":9068,"Ġimprescindible":9069,"Ġabsoluta":9070,"ĠmuÃ±":9071,"ĠespecÃŃfico":9072,"Ġcien":9073,"ĠcirculaciÃ³n":9074,"Ġocurr":9075,"Ġsentimiento":9076,"ĠSociales":9077,"Ġentiendo":9078,"Ġdiputado":9079,"Ġbebidas":9080,"ugas":9081,"ĠPR":9082,"Ġcomprend":9083,"jeros":9084,"Ġcuadros":9085,"Ġcomunicaciones":9086,"Ġesperamos":9087,"ĠmillÃ³n":9088,"Ġhalla":9089,"ĠNicolÃ¡s":9090,"ĠBus":9091,"Tra":9092,"Ġcompl":9093,"Ġresiduos":9094,"habilitaciÃ³n":9095,"ĠTorre":9096,"Ġeficacia":9097,"ĠiluminaciÃ³n":9098,"42":9099,"Ġterminado":9100,"ĠDefensa":9101,"rices":9102,"Ġhubiese":9103,"Ġdisponibilidad":9104,"Ã©ticas":9105,"Ġprete":9106,"Hab":9107,"ĠcoordinaciÃ³n":9108,"avo":9109,"Ã³sitos":9110,"03":9111,"ĠHacienda":9112,"Ġwith":9113,"Otro":9114,"Ġimpulsar":9115,"ĠllamÃ³":9116,"Ġater":9117,"ĠSO":9118,"Ġcaj":9119,"dato":9120,"Ġexperto":9121,"Ġ42":9122,"ĠRamÃ³n":9123,"ĠPeÃ±a":9124,"Ġtela":9125,"igraciÃ³n":9126,"ispo":9127,"Ġgrit":9128,"ĠbaÃ±os":9129,"ĠMayo":9130,"Ġvuestro":9131,"Ġconsideran":9132,"Ġmini":9133,"ualquier":9134,"Ġ600":9135,"ĠdueÃ±o":9136,"ĠRegional":9137,"Ġmantienen":9138,"ĠPanamÃ¡":9139,"itaciÃ³n":9140,"Ġladr":9141,"ĠHan":9142,"onesa":9143,"esig":9144,"Ġaviso":9145,"Ġjub":9146,"denes":9147,"box":9148,"Ġrosa":9149,"dib":9150,"ĠMes":9151,"Ġprivadas":9152,"ĠDI":9153,"Ġplantilla":9154,"Ġjornadas":9155,"Ġmaterias":9156,"Ġrecorrer":9157,"desig":9158,"aqu":9159,"Ġrepresentan":9160,"ĠÃ¡ng":9161,"martph":9162,"Ġingles":9163,"egas":9164,"Ġdeseos":9165,"ĠorientaciÃ³n":9166,"ĠjurÃŃdica":9167,"Ġpuro":9168,"ĠCN":9169,"Ġrecoger":9170,"izando":9171,"ĠEstamos":9172,"ctur":9173,"ĠNet":9174,"Ġcuero":9175,"ilizar":9176,"Ġaten":9177,"Ġabordar":9178,"uche":9179,"Ġvoces":9180,"Ġenve":9181,"Ġhall":9182,"ĠengaÃ±":9183,"ĠAutÃ³noma":9184,"Ġdol":9185,"...)":9186,"ĠAllÃŃ":9187,"Ġpenet":9188,"ĠXIX":9189,"Ġproporcionar":9190,"Ġhabilit":9191,"Ġmodos":9192,"Ġnovio":9193,"rest":9194,"Ã¡ndonos":9195,"Ġgimnas":9196,"Ġmexicana":9197,"Ġmusicales":9198,"Muchas":9199,"visiÃ³n":9200,"ĠOficina":9201,"Ġmono":9202,"Ġgris":9203,"ĠFondo":9204,"Ġutilizados":9205,"ĠCÃ³mo":9206,"Ġmalos":9207,"ream":9208,"olar":9209,"iciales":9210,"Ġaluminio":9211,"ĠMurcia":9212,"Ġpromet":9213,"Ġsalvar":9214,"Ġdato":9215,"Ġavanzar":9216,"Ġquem":9217,"Ġferia":9218,"Ġrango":9219,"Ġvicepres":9220,"port":9221,"ĠSr":9222,"Ġquedarse":9223,"alista":9224,"Antes":9225,"Ġruedas":9226,"Ã©rico":9227,"02":9228,"ĠLabor":9229,"Ġargentina":9230,"Ġpreserv":9231,"Ġconstantemente":9232,"ĠcomprensiÃ³n":9233,"Ġcontest":9234,"comp":9235,"Ãºne":9236,"ĠficciÃ³n":9237,"Ġfrutas":9238,"Ġsobr":9239,"Ġrealizados":9240,"ĠcatÃ¡logo":9241,"ĠmetÃ¡l":9242,"ĠcontrataciÃ³n":9243,"Ġcultivo":9244,"vie":9245,"Ġeter":9246,"Ġrecientes":9247,"ĠmodificaciÃ³n":9248,"ĠcapacitaciÃ³n":9249,"ath":9250,"Ġbonita":9251,"abetes":9252,"Ġconfi":9253,"64":9254,"Ġinformado":9255,"gÃ¼e":9256,"inidad":9257,"Ġurg":9258,"BI":9259,"ĠconclusiÃ³n":9260,"Ġvuelos":9261,"Ġquince":9262,"Ġrenta":9263,"Ġpresidenta":9264,"ĠharÃ¡n":9265,"ĠOper":9266,"Ġdesig":9267,"ĠVia":9268,"77":9269,"Ġfamosa":9270,"Ġcomunicar":9271,"ĠOtros":9272,"dada":9273,"Ġacorde":9274,"Ġadver":9275,"Ġgestionar":9276,"Ġaprobado":9277,"Ġmanga":9278,"Ġindustriales":9279,"ĠSergio":9280,"Ġfortalecer":9281,"ĠNosotros":9282,"igÃ¼":9283,"Ãºsica":9284,"dram":9285,"ĠAnte":9286,"Ġgarantiza":9287,"Ġqueso":9288,"ings":9289,"Ġhablan":9290,"Ġjuventud":9291,"ĠInstagram":9292,"cÃ¡n":9293,"Ġmold":9294,"Ġabogados":9295,"Ġasumir":9296,"ificÃ³":9297,"Ġmovilidad":9298,"ĠCaribe":9299,"Â·":9300,"Ġanunciado":9301,"Ġayudas":9302,"Ġdestacado":9303,"Ġetapas":9304,"ĠdifÃŃciles":9305,"Ġrinc":9306,"IST":9307,"bao":9308,"ĠcompeticiÃ³n":9309,"ĠPOR":9310,"esast":9311,"85":9312,"oni":9313,"desast":9314,"Ġcortes":9315,"2015":9316,"ĠÃĵ":9317,"Ġimpresionante":9318,"Ġimpuls":9319,"Ġpast":9320,"istos":9321,"Ġveremos":9322,"Ġcaptur":9323,"Ġmostra":9324,"Ġprobabilidad":9325,"xi":9326,"Ġproductor":9327,"ĠFormaciÃ³n":9328,"ĠprÃ³ximas":9329,"Ġmagist":9330,"ĠidentificaciÃ³n":9331,"Ġsujetos":9332,"Ġprivacidad":9333,"Ġmirando":9334,"ĠTenemos":9335,"Ġnecesitar":9336,"Ġfoll":9337,"hen":9338,"Ġbrazo":9339,"Ġacostumb":9340,"Ġadjud":9341,"ĠlÃ³gica":9342,"Ġrein":9343,"ĠseÃ±ales":9344,"ĠFun":9345,"ĠSemana":9346,"Ġmach":9347,"Ġevaluar":9348,"amental":9349,"Ġpermanecer":9350,"ĠexpansiÃ³n":9351,"Ġmale":9352,"Ġpatio":9353,"ĠSegunda":9354,"Ġespecializada":9355,"Ã³rica":9356,"Ġdelinc":9357,"Ġestuvieron":9358,"Ġimaginar":9359,"Ġdeportiva":9360,"Ġmodalidad":9361,"ational":9362,"ĠVas":9363,"ĠTorres":9364,"ĠProvincia":9365,"Ġcarro":9366,"Ġcomputadora":9367,"Ġgeneraciones":9368,"Ġapost":9369,"ĠTengo":9370,"Ġsald":9371,"Ġvirtud":9372,"Ġconocen":9373,"Ġdios":9374,"ĠEle":9375,"Sobre":9376,"Ġcreando":9377,"ĠFiscalÃŃa":9378,"ilde":9379,"ward":9380,"Ġcartel":9381,"Ġdeportes":9382,"Ġcampeonato":9383,"rey":9384,"Ġaporte":9385,"ty":9386,"Ġprodujo":9387,"Ġfuncionario":9388,"Ġadolescente":9389,"Ġhuevos":9390,"ĠBlanca":9391,"rov":9392,"Ġpublicaciones":9393,"orca":9394,"Ġamable":9395,"utr":9396,"ĠApl":9397,"umo":9398,"Ġsuyo":9399,"Ġhttps":9400,"ezas":9401,"Ġvinos":9402,"Ġasociaciones":9403,"ERO":9404,"tesis":9405,"ĠabriÃ³":9406,"Ġverlo":9407,"Ġcuidar":9408,"Ġprima":9409,"Ġfallo":9410,"rm":9411,"ĠWal":9412,"ĠPapa":9413,"2016":9414,"Otra":9415,"Ġbarato":9416,"ĠPen":9417,"Ġapartamento":9418,"Ġreformas":9419,"Ġayude":9420,"Ġindicado":9421,"Ġtreinta":9422,"Ġdesast":9423,"Ġembaj":9424,"Ġpantal":9425,"ĠWashington":9426,"Ġcorreg":9427,"Ġ250":9428,"ĠGobern":9429,"Ġdram":9430,"ÃŃmetros":9431,"ME":9432,"Ob":9433,"iriÃ³":9434,"Ġquedaron":9435,"Ġcubierta":9436,"Ġmandar":9437,"ĠRico":9438,"TIV":9439,"Ġrecaud":9440,"iblia":9441,"ĠGlo":9442,"top":9443,"ĠcÃŃr":9444,"ĠIntel":9445,"ĠVie":9446,"Ġmuseo":9447,"ĠRoberto":9448,"Ġpiedras":9449,"Ġenemigos":9450,"Ġacudir":9451,"wood":9452,"Ġje":9453,"Ġplat":9454,"aros":9455,"Ġnotar":9456,"Ġahorrar":9457,"ĠconsiguiÃ³":9458,"uge":9459,"Ġnucle":9460,"Ġ120":9461,"Ġnieve":9462,"ĠbÃ¡sica":9463,"Ġfans":9464,"ĠclÃŃnica":9465,"ĠLet":9466,"Ġlaboratorio":9467,"Ġiguales":9468,"Ġmaravilloso":9469,"ĠespaÃ±olas":9470,"ree":9471,"ĠIndep":9472,"ote":9473,"Ġescenas":9474,"Ġbendi":9475,"Man":9476,"squina":9477,"esquina":9478,"43":9479,"ĠEspero":9480,"Ġrepetir":9481,"Ġcuant":9482,"Ġbacter":9483,"Ġrecomendamos":9484,"Ġescas":9485,"GU":9486,"Ġgoz":9487,"Ġmuestras":9488,"ĠIngenierÃŃa":9489,"ĠperiÃ³dico":9490,"ART":9491,"once":9492,"Ġpropietario":9493,"Ġprivados":9494,"Ġtrama":9495,"Ġmore":9496,"Ġrenunci":9497,"ĠtelÃ©fonos":9498,"Del":9499,"Ġmecanismo":9500,"uu":9501,"Ġponemos":9502,"Creo":9503,"ĠGol":9504,"guÃ©":9505,"ÃŃcola":9506,"Ġacept":9507,"Ġdestacan":9508,"Ġcombatir":9509,"Ġregla":9510,"ĠEX":9511,"Ġmejoras":9512,"Ġhered":9513,"ÃŃfica":9514,"ĠhÃ¡bitos":9515,"Ġpracticar":9516,"Ġbolas":9517,"Ġfueran":9518,"ĠPaul":9519,"Ġpoderes":9520,"garse":9521,"Ġsole":9522,"ĠCur":9523,"ĠReglamento":9524,"Ġcercana":9525,"Ġviviendo":9526,"Ġtratado":9527,"ĠCooper":9528,"ĠSimp":9529,"Ġshow":9530,"Ġsaga":9531,"mend":9532,"Ġverse":9533,"ĠÃ³rgano":9534,"ĠExper":9535,"Ġpudieron":9536,"Ġpermitan":9537,"ĠRica":9538,"Ġpotente":9539,"ĠSexo":9540,"Ġreservas":9541,"ĠAcademia":9542,"ĠCanadÃ¡":9543,"ĠdescripciÃ³n":9544,"cat":9545,"ĠCuer":9546,"Ġpolic":9547,"erada":9548,"ih":9549,"ĠlÃŃquido":9550,"ĠparÃ¡m":9551,"ĠcrÃ©ditos":9552,"Ġdirigentes":9553,"Ġconsumidor":9554,"Ġdebo":9555,"MO":9556,"Ġrecl":9557,"ERA":9558,"merc":9559,"ĠAlim":9560,"Ġtransmitir":9561,"Ġsostenible":9562,"Ġtoneladas":9563,"ĠQUE":9564,"Ġminerales":9565,"ĠBos":9566,"Ġsituada":9567,"ĠespecÃŃficos":9568,"ĠÃģfrica":9569,"cam":9570,"Ġrestric":9571,"Ġdices":9572,"Ġdiplom":9573,"Ġregalos":9574,"Or":9575,"Ġdichas":9576,"Ġesquina":9577,"geno":9578,"ĠacÃ¡":9579,"Ġapariencia":9580,"ĠVicente":9581,"PU":9582,"Ġsobres":9583,"Ã¡mico":9584,"ĠSar":9585,"Ġverdes":9586,"Ġdescubre":9587,"ADA":9588,"berg":9589,"Ġretos":9590,"Ġbasura":9591,"Ġnoctur":9592,"rilla":9593,"ĠMedia":9594,"asiÃ³n":9595,"Ġoral":9596,"ĠfÃ³rmula":9597,"Ġmontaje":9598,"fit":9599,"Nuestro":9600,"Ġaltamente":9601,"Ġfach":9602,"Ġsalas":9603,"Ġconciertos":9604,"Ġfrancesa":9605,"ĠindÃŃgenas":9606,"ĠTan":9607,"ĠdinÃ¡mica":9608,"vias":9609,"ĠvacÃŃo":9610,"atu":9611,"EA":9612,"Ġcontribuir":9613,"Ġluc":9614,"Ġdeg":9615,"ĠMercado":9616,"Ġpendientes":9617,"ĠpermitiÃ³":9618,"Ġfruto":9619,"alax":9620,"Ġconformidad":9621,"ĠRosario":9622,"Ġdecidi":9623,"Ġprimaria":9624,"Ġdistrito":9625,"ĠLes":9626,"Ġhorarios":9627,"Ġcaball":9628,"Ġquisiera":9629,"Ġconducir":9630,"ĠfÃ¡brica":9631,"Ġesperan":9632,"Ġasal":9633,"ĠAragÃ³n":9634,"Ġarroz":9635,"ĠÃŃnt":9636,"ĠOnline":9637,"Ġdistinta":9638,"adera":9639,"Ġrevisar":9640,"ĠexplicaciÃ³n":9641,"Ġinterpretar":9642,"Ġcontratar":9643,"ugada":9644,"ĠTrat":9645,"Ġescult":9646,"Ġtorm":9647,"ĠAutor":9648,"ĠveÃŃa":9649,"Ġabrazo":9650,"ĠadquisiciÃ³n":9651,"ĠgrÃ¡fico":9652,"Ġderrota":9653,"Ġtasas":9654,"Ġexcelentes":9655,"ariales":9656,"ujos":9657,"PD":9658,"Ġby":9659,"neros":9660,"ĠMuchos":9661,"way":9662,"Ġcome":9663,"Ġmalas":9664,"alizadas":9665,"ellÃ³n":9666,"ĠVida":9667,"ĠGuatemala":9668,"ĠYou":9669,"Ġreiter":9670,"Ġaliv":9671,"ĠimaginaciÃ³n":9672,"ĠhÃ©roe":9673,"ĠNunca":9674,"68":9675,"ĠFeria":9676,"NO":9677,"mi":9678,"Ġobtuvo":9679,"Ġtranspar":9680,"Ġllaman":9681,"Ġidiomas":9682,"ĠGrat":9683,"NA":9684,"apor":9685,"Ġvag":9686,"ĠacadÃ©mico":9687,"uk":9688,"villa":9689,"Ġlimpiar":9690,"Ġsirven":9691,"Ġdoy":9692,"quen":9693,"Ġlimpio":9694,"ĠprestaciÃ³n":9695,"ĠautonomÃŃa":9696,"Ġdetener":9697,"ĠdomÃ©st":9698,"Ġdetenido":9699,"Ġpoeta":9700,"Ã³cra":9701,"zco":9702,"ĠGas":9703,"Ġdisciplina":9704,"ĠEmpresa":9705,"Ġmezcl":9706,"Ġsatisfacer":9707,"spens":9708,"Ġalimento":9709,"TV":9710,"ĠParlamento":9711,"cÃ³mo":9712,"entada":9713,"Ġanci":9714,"Ġformal":9715,"Ġeuropea":9716,"ĠGan":9717,"Ġcolumna":9718,"Ġestilos":9719,"Ġrast":9720,"ĠGalicia":9721,"Ġdiputados":9722,"Ġparar":9723,"Ġvigor":9724,"Ġacondicionado":9725,"Ġexten":9726,"Ġpropietarios":9727,"raban":9728,"ĠseÃ±alado":9729,"ĠemociÃ³n":9730,"Ġrumbo":9731,"rueba":9732,"Ġbod":9733,"Ġdivul":9734,"ledo":9735,"Per":9736,"ĠSebastiÃ¡n":9737,"SI":9738,"ÃŃnci":9739,"ĠaÃ±adiÃ³":9740,"Ġentero":9741,"Ġconveniente":9742,"Ġfemenino":9743,"ĠprecisiÃ³n":9744,"ripciones":9745,"ribir":9746,"ĠReci":9747,"mÃ³":9748,"igencia":9749,"41":9750,"Ġses":9751,"acha":9752,"Ġlej":9753,"Ġansiedad":9754,"Ġejecutivo":9755,"Ġconlle":9756,"olla":9757,"Ġdisfra":9758,"ĠEjÃ©rcito":9759,"ises":9760,"ĠJack":9761,"Ġtard":9762,"Ġestablecimientos":9763,"Ã©nez":9764,"Ġaccidentes":9765,"Ġmasaje":9766,"Ġhabilidad":9767,"leno":9768,"Ġprovincial":9769,"Ġgustos":9770,"Ġcabal":9771,"Ġhol":9772,"nten":9773,"Ġestamp":9774,"ĠBon":9775,"ĠAre":9776,"Ġasociados":9777,"cla":9778,"Ġavis":9779,"Ġingen":9780,"naciÃ³n":9781,"Ġensay":9782,"sact":9783,"Ġreiv":9784,"ĠÃºtiles":9785,"Ġsalsa":9786,"Ġbaile":9787,"Ġprovincias":9788,"Finalmente":9789,"udiciales":9790,"Ġamantes":9791,"Ġescenarios":9792,"ĠJorn":9793,"Ġapet":9794,"Ġpur":9795,"Ġintenso":9796,"illermo":9797,"ĠinspiraciÃ³n":9798,"Ġfuncionar":9799,"ĠreÃºne":9800,"ĠplanificaciÃ³n":9801,"ey":9802,"ĠGuer":9803,"oluciones":9804,"ĠnavegaciÃ³n":9805,"Ġtrabajado":9806,"seÃ±":9807,"utados":9808,"ĠCanarias":9809,"ÃŃnas":9810,"Ġamo":9811,"cara":9812,"Ġdeterior":9813,"Ġmesas":9814,"ĠCU":9815,"colo":9816,"andra":9817,"Ġdefinitivamente":9818,"Ġorgullos":9819,"gener":9820,"Ġreciben":9821,"edral":9822,"Ġmexicanos":9823,"Ġproceder":9824,"Ġcerveza":9825,"ĠEspÃŃritu":9826,"ĠGr":9827,"ĠFinanci":9828,"Ġcreciente":9829,"Ġsustancias":9830,"Ġhumedad":9831,"Ġlistas":9832,"ĠPÃ¡g":9833,"Ġraro":9834,"ĠcayÃ³":9835,"ucir":9836,"Ġtemprano":9837,"Ã¡nea":9838,"Ġhilo":9839,"Ġportavoz":9840,"ĠArtÃŃculo":9841,"Ġtransferencia":9842,"Muy":9843,"Ġolor":9844,"ĠAustral":9845,"Ġsolidaridad":9846,"Ġautomat":9847,"Ġroja":9848,"Ġgubern":9849,"Ġpreciso":9850,"Ġparticiparon":9851,"Ġlimpia":9852,"Ġrica":9853,"ĠCorpor":9854,"Ġbicicleta":9855,"igas":9856,"nada":9857,"Ġliderazgo":9858,"Ġceremonia":9859,"ĠLuna":9860,"ĠCalle":9861,"endido":9862,"rocar":9863,"Ġbandera":9864,"ĠNov":9865,"inete":9866,"ĠLegisl":9867,"ĠActualmente":9868,"Ġinicia":9869,"Ġsiga":9870,"Ġestacion":9871,"ĠoÃŃdo":9872,"ÃŃsimas":9873,"ĠPortugal":9874,"ĠAnun":9875,"Ġronda":9876,"Ġcostes":9877,"sung":9878,"ĠMarcel":9879,"Ġhabia":9880,"ICI":9881,"Ġprobado":9882,"Ġsufrido":9883,"Ġseleccionar":9884,"Ġarbit":9885,"Ġmediados":9886,"Ġjoy":9887,"ĠhablÃ³":9888,"Ġenfrentar":9889,"Ġescrita":9890,"ĠMoreno":9891,"econ":9892,"Ġcade":9893,"Ġacom":9894,"ĠÃºnicos":9895,"Ġ47":9896,"Ġestadounidenses":9897,"ĠrespondiÃ³":9898,"ĠVel":9899,"RAN":9900,"Ġabunda":9901,"ĠMartin":9902,"Ġprestaciones":9903,"Ġmaquinaria":9904,"Ġepisodio":9905,"Ġobligado":9906,"ÃŃces":9907,"uyente":9908,"Ġreferencias":9909,"ĠMich":9910,"onc":9911,"ĠfÃŃsicas":9912,"ĠsÃºper":9913,"squ":9914,"Ġaficionados":9915,"Ġcrimen":9916,"ĠaceptaciÃ³n":9917,"QuiÃ©n":9918,"ĠcÃ³moda":9919,"Estoy":9920,"Ġexistir":9921,"ots":9922,"ĠAmor":9923,"ĠPatr":9924,"Ġregresar":9925,"Ġexclusivo":9926,"azz":9927,"cir":9928,"Ġnavegador":9929,"Ġcomenzaron":9930,"oth":9931,"Ġrobo":9932,"alos":9933,"ĠcirugÃŃa":9934,"ulados":9935,"Ð»":9936,"tu":9937,"Ġfibra":9938,"Ġfavoritos":9939,"ĠautomÃ¡ticamente":9940,"Ġterap":9941,"ĠConc":9942,"Ġmarcado":9943,"Ġmedir":9944,"ĠIsabel":9945,"Ġ[...]":9946,"Ġincumpl":9947,"ĠCristina":9948,"Ġpatr":9949,"Ġincomp":9950,"arc":9951,"ĠvaloraciÃ³n":9952,"Ġhogare":9953,"Ġintegrado":9954,"Ġodio":9955,"Ġestructur":9956,"Ġcontinuidad":9957,"Ġraza":9958,"Ġmotores":9959,"ĠbÃ¡sicas":9960,"ĠtrÃ¡n":9961,"Ġcreada":9962,"ĠbalÃ³n":9963,"Ġaparato":9964,"Ġquiso":9965,"Ġsube":9966,"Ġdoctr":9967,"dis":9968,"atch":9969,"ĠayudarÃ¡":9970,"izos":9971,"Ġconcret":9972,"Ġ43":9973,"ĠInterior":9974,"67":9975,"Ġobtenido":9976,"ĠContra":9977,"jado":9978,"ĠserÃŃan":9979,"Ġpostura":9980,"Ġconocemos":9981,"Ġiny":9982,"Ġantic":9983,"ritas":9984,"iot":9985,"Ġelevado":9986,"icidio":9987,"Ġfemin":9988,"aller":9989,"ĠAprende":9990,"Ġvendi":9991,"Ġabst":9992,"Ġasomb":9993,"Ġ01":9994,"ĠtÃ¡ct":9995,"ĠDom":9996,"raje":9997,"ĠTam":9998,"ĠCastillo":9999,"Ġcastellano":10000,"Ġmencionar":10001,"ĠpodrÃŃamos":10002,"Ġmatar":10003,"Ġpagina":10004,"ducha":10005,"Ġmineral":10006,"Ġvivido":10007,"Ġpoquito":10008,"Ġdeseas":10009,"Ġsuficientes":10010,"ĠOscar":10011,"Ġsolid":10012,"Ġrot":10013,"Ġcomidas":10014,"cis":10015,"ĠÃ³rdenes":10016,"Ġciviles":10017,"ĠOf":10018,"cons":10019,"ben":10020,"Ġcubre":10021,"lash":10022,"Ġplantea":10023,"Ġordin":10024,"ĠMorales":10025,"cend":10026,"enco":10027,"lara":10028,"ony":10029,"Ġalcanza":10030,"ĠjurÃŃdico":10031,"Ġpanorama":10032,"Ġingresar":10033,"Ġcolombiano":10034,"entamente":10035,"Ġprevent":10036,"ĠNor":10037,"ĠVerd":10038,"ĠpÃ©rdidas":10039,"ĠÃ©stas":10040,"Ġdespertar":10041,"Ġ95":10042,"ĠsentÃŃa":10043,"Ġprendas":10044,"ĠJue":10045,"Ġindependientes":10046,"Ġdescubierto":10047,"ĠPin":10048,"Ġremit":10049,"Ġmetas":10050,"rog":10051,"Ġpatro":10052,"itivo":10053,"Ġnecesito":10054,"Ġmodificaciones":10055,"Ġestaciones":10056,"Ġvigilancia":10057,"ĠportÃ¡til":10058,"ideos":10059,"Ġ44":10060,"Ġcristianos":10061,"ĠPrincip":10062,"ĠnegociaciÃ³n":10063,"Ġhabido":10064,"utube":10065,"exo":10066,"Ġapp":10067,"ipto":10068,"OT":10069,"Ġfavorito":10070,"apo":10071,"ĠPens":10072,"ĠclÃ¡sicos":10073,"Ġcola":10074,"Ġcoger":10075,"!,":10076,"Ġmaquilla":10077,"Ve":10078,"work":10079,"did":10080,"Ġcobrar":10081,"ĠPRI":10082,"ĠsÃŃmbolo":10083,"Ġdependencia":10084,"Ġducha":10085,"Ġasesinato":10086,"Ġeducativos":10087,"Ġacontecimientos":10088,"Ġdirigir":10089,"ĠOtra":10090,",...":10091,"Ġpublica":10092,"Ġcajas":10093,"Ġdecreto":10094,"ĠCA":10095,"hael":10096,"Ġadoptar":10097,"ĠpareciÃ³":10098,"ĠUt":10099,"Os":10100,"Ġguitarra":10101,"Ġbienvenida":10102,"ĠotoÃ±o":10103,"Ġsalario":10104,"illar":10105,"ĠRet":10106,"Ġfomentar":10107,"Ġbille":10108,"odÃŃa":10109,"Ġvea":10110,"ernidad":10111,"urre":10112,"Ġgrue":10113,"Ġelectro":10114,"Ġcombustible":10115,"ordar":10116,"aduras":10117,"uyeron":10118,"usas":10119,"ingÃ¼":10120,"ĠGust":10121,"ĠMen":10122,"ifique":10123,"Ġgato":10124,"Ġdisposiciones":10125,"unidad":10126,"Ġprecisa":10127,"Ġargumento":10128,"ĠHabana":10129,"iblemente":10130,"Ġadap":10131,"uerta":10132,"abra":10133,"sv":10134,"Ġestando":10135,"ĠEuropeo":10136,"Ġllevando":10137,"Ġsoldados":10138,"alencia":10139,"Ġpisos":10140,"ĠDeportes":10141,"Ġdescuentos":10142,"dade":10143,"ĠAsturias":10144,"Gu":10145,"Ġembl":10146,"Ġintroduci":10147,"ĠFrente":10148,"ĠEg":10149,"Ġlargas":10150,"sac":10151,"Ġsilla":10152,"Ġprovocar":10153,"argar":10154,"esact":10155,"Ġfelices":10156,"Ġdesped":10157,"Fi":10158,"Ġregistros":10159,"Ġcaracteriza":10160,"cular":10161,"ropolit":10162,"Ġvib":10163,"Ġconduce":10164,"Ġsignos":10165,"antar":10166,"Ġparcial":10167,"98":10168,"Ġempresario":10169,"Ġcorporal":10170,"Ġindispens":10171,"ĠoraciÃ³n":10172,"ĠespecÃŃfica":10173,"desact":10174,"ĠMA":10175,"Ġestreno":10176,"Ġintentando":10177,"Ġmanejar":10178,"Ġdiabetes":10179,"ĠgustÃ³":10180,"Ġparad":10181,"ĠMater":10182,"ĠWorld":10183,"Ġsentirse":10184,"Ġja":10185,"ĠregulaciÃ³n":10186,"Ġpudieran":10187,"Ġricos":10188,"Ġ46":10189,"Ġmadrugada":10190,"ĠPA":10191,"Ġacu":10192,"Ġsurge":10193,"Ġllevaron":10194,"Ġhogares":10195,"jan":10196,"ĠDet":10197,"Ġlargos":10198,"Ġfiscales":10199,"dero":10200,"Ġcampes":10201,"guardia":10202,"piente":10203,"Ġminim":10204,"Ġgrie":10205,"olas":10206,"Ġcuentos":10207,"Ġvueltas":10208,"Ġmier":10209,"of":10210,"Ġrealizaron":10211,"Ġdedicar":10212,"Ġconstruido":10213,"Ġsmartph":10214,"Ġdormitorios":10215,"onar":10216,"ĠcontarÃ¡":10217,"Ġenviado":10218,"Ġsemillas":10219,"Ġesenciales":10220,"urt":10221,"Ġfresco":10222,"uenca":10223,"Ġaval":10224,"Ġsigo":10225,"ĠespecÃŃficas":10226,"GT":10227,"ĠtrÃ¡nsito":10228,"gin":10229,"ĠIgn":10230,"Ġdescenso":10231,"ĠLog":10232,"ĠLibro":10233,"ĠCuenta":10234,"Ġconsentimiento":10235,"Ġsello":10236,"Ġpersonalmente":10237,"Ġcurioso":10238,"Ġconvivencia":10239,"ordi":10240,"cedes":10241,"sca":10242,"Ġilegal":10243,"rile":10244,"Ġsc":10245,"Ġcaballo":10246,"Ġexpresar":10247,"entalmente":10248,"Ġcuadrados":10249,"Ġcalent":10250,"Ġimpulso":10251,"Ġheridas":10252,"ENTE":10253,"Ġenamor":10254,"ÃŃb":10255,"Ġdeterminados":10256,"Ġsumar":10257,"ĠJames":10258,"Ġcuriosidad":10259,"Ġatend":10260,"Ġprostitu":10261,"Ġdevolver":10262,"elar":10263,"ĠMedicina":10264,"Ġconsta":10265,"isdic":10266,"Di":10267,"Ġkilos":10268,"ugu":10269,"Ġtorre":10270,"ĠAÃ±o":10271,"aciÃĥ":10272,"Ġneum":10273,"Ã¡vez":10274,"jerÃŃa":10275,"Ġfelici":10276,"erante":10277,"Ġexcelencia":10278,"Ġcuota":10279,"Ġirregular":10280,"Ġcamiseta":10281,"Ġdejaron":10282,"Ġagra":10283,"Ante":10284,"eck":10285,"uvieron":10286,"Ġtemor":10287,"ĠSomos":10288,"Ġdesact":10289,"odÃ³n":10290,"Ġfracaso":10291,"Ġsuficientemente":10292,"orales":10293,"Ġauxil":10294,"Ġtip":10295,"Ġrecol":10296,"Ġbaut":10297,"ĠIsla":10298,"Ġgafas":10299,"Ġsubray":10300,"ĠsuspensiÃ³n":10301,"Ġequivalente":10302,"Ġfuimos":10303,"Ġllamados":10304,"ĠapareciÃ³":10305,"Ġpasta":10306,"Ġdiga":10307,"idado":10308,"otras":10309,"ĠturÃŃstico":10310,"Ġvecino":10311,"Ġcreciendo":10312,"ĠseÃ±alar":10313,"Ã¶":10314,"Ġprovoca":10315,"Ġreino":10316,"Ġvieja":10317,"ĠIS":10318,"Ġrebaj":10319,"ĠĠĠĠ":10320,"ĠMÃºsica":10321,"Ġdisponer":10322,"Bar":10323,"Ġpongo":10324,"Ġbiblioteca":10325,"Ġtemplo":10326,"Ġarco":10327,"ĠeliminaciÃ³n":10328,"Ġcontrase":10329,"bur":10330,"ĠPep":10331,"Ġrespaldo":10332,"Ġsolucionar":10333,"Ġliga":10334,"elle":10335,"%)":10336,"ĠCort":10337,"Ãºmero":10338,"Ġ1999":10339,"ubr":10340,"evit":10341,"Ã©cord":10342,"Ġ:)":10343,"Ġsuav":10344,"Ġpintar":10345,"ĠProfesional":10346,"ĠcontaminaciÃ³n":10347,"ĠTit":10348,"ĠÃ¡cido":10349,"Ġtribut":10350,"resp":10351,"iss":10352,"dades":10353,"Ġdesapareci":10354,"Ġdeterm":10355,"Ġseco":10356,"Ġtramit":10357,"orcio":10358,"Ġfus":10359,"Ã¡menes":10360,"ĠprÃ³":10361,"Ġrutina":10362,"Ġexplicado":10363,"ĠtÃ©":10364,"ĠconfirmÃ³":10365,"uti":10366,"ĠMana":10367,"Ġtramo":10368,"EE":10369,"Nuestra":10370,"neg":10371,"Ġelaborado":10372,"ĠDol":10373,"ĠPap":10374,"ĠfotÃ³graf":10375,"Ġ49":10376,"ĠinclusiÃ³n":10377,"Ġfrutos":10378,"Ġrelacionada":10379,"dup":10380,"yl":10381,"Ġestablecidos":10382,"Ġreina":10383,"urÃ³":10384,"Ġamigas":10385,"Ġrelevante":10386,"cm":10387,"rimon":10388,"ĠmÃŃo":10389,"Ġanteced":10390,"ĠMira":10391,"ĠMej":10392,"orra":10393,"Ġtuvimos":10394,"ĠSenado":10395,"Ġtonos":10396,"INA":10397,"andal":10398,"Ġrespira":10399,"ĠGuillermo":10400,"Ġcobre":10401,"Ġcontinente":10402,"ecÃŃan":10403,"Ġrecoge":10404,"Ã¡z":10405,"Ġquedo":10406,"ogrÃ¡fico":10407,"Ġcolectiva":10408,"ĠAlta":10409,"ĠMarketing":10410,"peta":10411,"TC":10412,"Ġpaga":10413,"ĠnÂº":10414,"ĠAlfonso":10415,"ĠaÃ±adido":10416,"ĠCapital":10417,"Ġtribunal":10418,"Ġrefleja":10419,"Ġincent":10420,"Ġfija":10421,"ÃŃmenes":10422,"lid":10423,"ĠrenovaciÃ³n":10424,"garon":10425,"St":10426,"Ġtraslado":10427,"Ã¡ndola":10428,"ĠVictoria":10429,"Quer":10430,"sem":10431,"ĠModel":10432,"Ġrechazo":10433,"Ġcamar":10434,"ĠComerci":10435,"Ġhisp":10436,"ĠAtenciÃ³n":10437,"Ġinvita":10438,"Ġlistado":10439,"Ġcausar":10440,"Ġcartera":10441,"Ġrepubl":10442,"junto":10443,"ĠWe":10444,"Ġpensaba":10445,"iertas":10446,"ĠOtro":10447,"ionados":10448,"Ġsalto":10449,"ĠAlicante":10450,"ĠGuardia":10451,"ĠLibre":10452,"ufici":10453,"Ġasesoramiento":10454,"ibre":10455,"Ġnaciones":10456,"Ġmonto":10457,"Ġreside":10458,"Ġpsico":10459,"ĠLar":10460,"Ġespecializado":10461,"Ġ--":10462,"Ġpelic":10463,"Ġplaca":10464,"ĠSaludos":10465,"Ġextend":10466,"Ġrelatos":10467,"Ġcostumbre":10468,"Ġabord":10469,"ĠcreÃ³":10470,"ĠDistrito":10471,"ecomun":10472,"Ø§":10473,"Ġinformar":10474,"Ġcreemos":10475,"Ġmolde":10476,"abo":10477,"Ġescoger":10478,"ĠDest":10479,"ĠcrÃŃtico":10480,"Ġparticularmente":10481,"Ġvivimos":10482,"Ġverduras":10483,"ĠMarco":10484,"venido":10485,"ĠWilliam":10486,"Ġhaberse":10487,"Ġdas":10488,"ĠraÃŃces":10489,"encer":10490,"ĠÃ¡mbitos":10491,"ĠBilbao":10492,"Ġbrinda":10493,"ĠEmpresas":10494,"ĠGir":10495,"ĠNeces":10496,"Ġluna":10497,"Ġofreciendo":10498,"Ġdecep":10499,"Ġcarre":10500,"Ġcongel":10501,"Ġgolpes":10502,"ĠOctubre":10503,"ĠAlto":10504,"ajara":10505,"ml":10506,"Ġprogreso":10507,"ĠcelebrarÃ¡":10508,"Ġpest":10509,"ĠpolicÃŃas":10510,"ĠRuiz":10511,"Ġtransparencia":10512,"Ġnegativo":10513,"Ġdestinos":10514,"Ġsentidos":10515,"Ġideales":10516,"Ġpuls":10517,"Ġbrut":10518,"Ġsirv":10519,"ĠlesiÃ³n":10520,"ĠpercepciÃ³n":10521,"ĠconducciÃ³n":10522,"ĠAsia":10523,"Ġelectricidad":10524,"Ġamenazas":10525,"Ġang":10526,"Ġbaratos":10527,"Ġvestidos":10528,"Inc":10529,"ĠRaÃºl":10530,"Ġecu":10531,"ÃŃso":10532,"ĠreproducciÃ³n":10533,"Ġechar":10534,"ĠpÃ¡rra":10535,"not":10536,"Ġexcepcional":10537,"rost":10538,"Ġdignidad":10539,"Ġ00":10540,"Ġaqu":10541,"Ġhablado":10542,"Ġapla":10543,"FA":10544,"Ġdelantero":10545,"Ġencanto":10546,"ceda":10547,"ĠDES":10548,"ĠÃ¡rabe":10549,"eren":10550,"Tenemos":10551,"Ġparada":10552,"ĠCiencia":10553,"Ġdenominado":10554,"uena":10555,"gico":10556,"Ġ41":10557,"Ġofens":10558,"Ġmaquillaje":10559,"ute":10560,"kin":10561,"Ġabandonar":10562,"Ġrepresentar":10563,"GB":10564,"Ġego":10565,"incl":10566,"ĠSantander":10567,"aluaciÃ³n":10568,"Ġreivindic":10569,"ĠRegiÃ³n":10570,"Ġinoc":10571,"Ġfirmado":10572,"Ġsostuvo":10573,"Ġorgullo":10574,"tega":10575,"Ġnegativa":10576,"ĠPriv":10577,"Ġparlament":10578,"Ġproveedor":10579,"Ġdada":10580,"Ã³micas":10581,"Ġfrecuente":10582,"CC":10583,"ĠMaur":10584,"ĠLatinoamÃ©rica":10585,"ĠgarantÃŃas":10586,"ĠfrÃŃa":10587,"ĠFr":10588,"ĠlanzÃ³":10589,"Ġconversaciones":10590,"Ġincorp":10591,"Eso":10592,"Ġsuministro":10593,"ramiento":10594,"ciona":10595,"Ġfactura":10596,"Ġproductividad":10597,"rosa":10598,"Ġviva":10599,"Somos":10600,"ĠTecnologÃŃa":10601,"Ġapell":10602,"endas":10603,"ĠincorporaciÃ³n":10604,"Ġsecretar":10605,"ĠCH":10606,"zadas":10607,"Ġocta":10608,"ĠLE":10609,"Ġparticipado":10610,"uÃ±a":10611,"Ġvayan":10612,"Ġpanel":10613,"Ġ85":10614,".Â»":10615,"Ġdeterminada":10616,"uerda":10617,"Ġende":10618,"ĠRelaciones":10619,"Ġmanifestaciones":10620,"Ġcelebrado":10621,"Ġoficio":10622,"Ġcaras":10623,"ĠApar":10624,"Ġposiblemente":10625,"ĠseguirÃ¡":10626,"Ġcinemat":10627,"Ġautora":10628,"Ġrevistas":10629,"Ġmentir":10630,"Ġmencionado":10631,"Ġorganizada":10632,"TS":10633,"ĠProductos":10634,"ĠcuÃ¡ndo":10635,"Ġpreced":10636,"ï¿½ï¿½":10637,"ism":10638,"Ġterminal":10639,"sea":10640,"ĠAmazon":10641,"ĠconsideraciÃ³n":10642,"ĠseparaciÃ³n":10643,"ÃŃsimos":10644,"rativo":10645,"Ġparticipan":10646,"ĠChÃ¡vez":10647,"ĠAcciÃ³n":10648,"Ġproclam":10649,"ĠenseÃ±ar":10650,"Ġhielo":10651,"ĠUsuario":10652,"Ġpesca":10653,"uja":10654,"terrÃ¡neo":10655,"PO":10656,"Siempre":10657,"ĠPER":10658,"ĠemisiÃ³n":10659,"Ġventanas":10660,"2014":10661,"ĠTrans":10662,"rese":10663,"entario":10664,"ÃŃes":10665,"Ġinfo":10666,".....":10667,"iler":10668,"Ġaves":10669,"Ġpaciencia":10670,"get":10671,"Ġempleado":10672,"Ġatre":10673,"Ġfuturos":10674,"Ġfall":10675,"Ġmilag":10676,"Ġsimult":10677,"ĠBlog":10678,"pens":10679,"ĠMichael":10680,"ĠExcel":10681,"Ġfrust":10682,"Ġbomba":10683,"Ġinmobili":10684,"Ġterapia":10685,"Ġcancha":10686,"Ġprecioso":10687,"eth":10688,"Ġsienten":10689,"ĠCin":10690,"rÃ¡ct":10691,"Ġmonstru":10692,"Ġpapeles":10693,"ĠtenÃŃamos":10694,"Ġaprende":10695,"ĠEspecial":10696,"Prim":10697,"Ġganancias":10698,"Ġesposo":10699,"cinas":10700,"ĠHugo":10701,"Ġservidores":10702,"Ġargumentos":10703,"Ġgalard":10704,"Lle":10705,"Ġnegros":10706,"Ġlanzado":10707,"Ġejer":10708,"Ġparro":10709,"omend":10710,"ĠresultÃ³":10711,"ĠtenÃ©is":10712,"Ġfirmas":10713,"ĠSitio":10714,"Ġreform":10715,"Ġexistente":10716,"ĠrÃ©cord":10717,"idumbre":10718,"ĠColor":10719,"ĠPsic":10720,"Ġapunta":10721,"grad":10722,"rativa":10723,"ĠLocal":10724,"Ġacepta":10725,"rac":10726,"umbr":10727,"ĠKar":10728,"ield":10729,"Ġlabores":10730,"ĠhistÃ³ricos":10731,"Ġciencias":10732,"ĠcuÃ¡nto":10733,"Ġpertin":10734,"ĠPost":10735,"ĠSecretario":10736,"ĠGafas":10737,"Tengo":10738,"ĠllegarÃ¡":10739,"Soy":10740,"urb":10741,"ĠRevoluciÃ³n":10742,"Ġtrist":10743,"Ġseguimos":10744,"Ġdestinado":10745,"Ã³licos":10746,"ĠONU":10747,"Ġnaranja":10748,"ĠOne":10749,"Ġsensibilidad":10750,"duelo":10751,"tornos":10752,"Ġlateral":10753,"Ġenvej":10754,"Ġutilizada":10755,"ĠDebe":10756,"Ġamarillo":10757,"pal":10758,"Ġsimples":10759,"Ġinflam":10760,"ividades":10761,"ĠEnf":10762,"Ġ800":10763,"ĠBlo":10764,"ati":10765,"atÃ³":10766,"ĠsufriÃ³":10767,"nia":10768,"ĠAlonso":10769,"Ġvidrio":10770,"pres":10771,"ĠNoviembre":10772,"ĠinflaciÃ³n":10773,"ĠHuman":10774,"Ġlitros":10775,"Ġapreciar":10776,"ĠRen":10777,"ĠartÃŃstica":10778,"Hemos":10779,"BL":10780,"ĠperfecciÃ³n":10781,"Ġ1998":10782,"ĠentrÃ³":10783,"ĠEllos":10784,"2013":10785,"Ġcomprende":10786,"Ġexcur":10787,"ĠVerde":10788,"Ġonce":10789,"ĠTres":10790,"Ġviajeros":10791,"Ġsecundaria":10792,"my":10793,"ĠhacÃŃan":10794,"Ġincrementar":10795,"Ġespejo":10796,"Ġevent":10797,"Ġmostrado":10798,").-":10799,"uelve":10800,"ARIO":10801,"Ġpelota":10802,"Ġpromov":10803,"ĠEp":10804,"Ã©sar":10805,"Ġtengamos":10806,"ĠZona":10807,"Ġduelo":10808,"Ġocio":10809,"ĠtemÃ¡tica":10810,"Ġhect":10811,"Ġtrataba":10812,"Ġademas":10813,"Ġtrit":10814,"Ġafectan":10815,"ĠFo":10816,"Ġencuesta":10817,"Ġvariables":10818,"ĠMaduro":10819,"Ġpescado":10820,"Ġ....":10821,"ĠSER":10822,"Ġaudiovis":10823,"Ġsuperviv":10824,"Ġhayas":10825,"ĠNa":10826,"ĠcatalÃ¡n":10827,"Ġaventuras":10828,"Ġcontroles":10829,"Ġarrast":10830,"iertos":10831,"ĠmÃºsicos":10832,"elli":10833,"ĠDin":10834,"ĠGabriel":10835,"Ġmisterio":10836,"Ġinfantiles":10837,"ĠdestrucciÃ³n":10838,"EX":10839,"Ġsubida":10840,"Ġfruta":10841,"Ġluminos":10842,"Ġconozco":10843,"Ġdiarios":10844,"Ġinvestigar":10845,"adi":10846,"Ġconver":10847,"Ġalerta":10848,"Ġcubano":10849,"ĠCurso":10850,"Ġabiertas":10851,"ĠHen":10852,"Ġcarbono":10853,"Ġnecesariamente":10854,"ĠFlores":10855,"Ġtarifas":10856,"ĠdÃ©fici":10857,"Ġcuantas":10858,"Ðº":10859,"ĠDivisiÃ³n":10860,"EstÃ¡":10861,"ĠclÃ¡sica":10862,"Ġlanzar":10863,"Ġmensual":10864,"ÃŃncipe":10865,".:":10866,"Ġresultar":10867,"Ġchino":10868,"ĠWhat":10869,"ĠGil":10870,"Inicio":10871,"Ġinconven":10872,"Ġsacrif":10873,"Ġprioridad":10874,"eh":10875,"Ġoeste":10876,"ectores":10877,"ĠpatrÃ³n":10878,"ĠhuÃ©sp":10879,"Ġsufre":10880,"Ġcron":10881,"Ġusos":10882,"Ġchar":10883,"________":10884,"ĠMy":10885,"ĠPenal":10886,"Ġafrontar":10887,"ĠGro":10888,"ĠbritÃ¡nico":10889,"Ġconsultas":10890,"Ġcontienen":10891,"ecemos":10892,"Ġpulgadas":10893,"69":10894,"Ġinal":10895,"eresa":10896,"Ġmuere":10897,"Ġtraje":10898,"Ġreducido":10899,"Ġconsigo":10900,"sex":10901,"htt":10902,"Ġconectar":10903,"Ġclick":10904,"mica":10905,"ader":10906,"Ġdesigual":10907,"ĠFa":10908,"Ġlicenci":10909,"uth":10910,"Ġverdaderamente":10911,"Ġ64":10912,"Ġpolicial":10913,"ĠLO":10914,"BO":10915,"ĠNar":10916,"Ġislas":10917,"Ġcuyas":10918,"Ġfemenina":10919,"Ġmanz":10920,"Ġsecretos":10921,"Ġarries":10922,"nio":10923,"ĠrecordÃ³":10924,"84":10925,"Ġdetectar":10926,"Ġespecializados":10927,"Ant":10928,"Ġdeportivas":10929,"ADOR":10930,"ortunadamente":10931,"ĠCine":10932,"ĠproteÃŃnas":10933,"âĨ":10934,"Ġrecorr":10935,"ĠdimensiÃ³n":10936,"Ġencuentre":10937,"ngan":10938,"ositor":10939,"!.":10940,"Ġaman":10941,"ĠReserv":10942,"reza":10943,"Ġdespert":10944,"ĠharÃŃa":10945,"Ġobserva":10946,"win":10947,"Ġvigencia":10948,"Ġinmigrantes":10949,"Ġclaras":10950,"Ġarter":10951,"ĠAle":10952,"Ġdup":10953,"Ġcore":10954,"ules":10955,"ĠFÃºtbol":10956,"Ġtitulado":10957,"Ġtalla":10958,"ĠVÃŃctor":10959,"Ġculmin":10960,"ĠCity":10961,"ĠÃģngeles":10962,"ndrome":10963,"letos":10964,"Ġfarmac":10965,"Ġsuena":10966,"Ġblancos":10967,"amar":10968,"Ġsonidos":10969,"Ġagencias":10970,"Ġprocede":10971,"nde":10972,"Ġsabido":10973,"ULO":10974,"Ġtuviera":10975,"Ġruso":10976,"esqu":10977,"ĠCalidad":10978,"Ġdisfruta":10979,"ĠSeguro":10980,"Ã¡ntica":10981,"ĠFinalmente":10982,"ĠdesafÃŃo":10983,"ĠJefe":10984,"Ġjueces":10985,"ĠOrg":10986,"atÃ³n":10987,"ĠForo":10988,"edios":10989,"ĠOriente":10990,"ze":10991,"Mo":10992,"ÃŃticas":10993,"Ġrelevantes":10994,"real":10995,"ĠacabÃ³":10996,"IDA":10997,"ĠNavarra":10998,"Ã¡ndome":10999,"ĠprÃ¡ctico":11000,"ĠenergÃ©tica":11001,"ĠImper":11002,"Bien":11003,"ĠparÃ¡metros":11004,"Ġsimb":11005,"San":11006,"Ġlogro":11007,"Ġelaborar":11008,"Ġdictadura":11009,"Ġapareci":11010,"ĠIns":11011,"Ġcono":11012,"89":11013,"ĠLeon":11014,"Ġindican":11015,"ĠtransiciÃ³n":11016,"Ġindem":11017,"Ġprotesta":11018,"Ġsalga":11019,"ĠIgnacio":11020,"Ġpira":11021,"ricos":11022,"ĠCert":11023,"Ġcontempl":11024,"ĠLAS":11025,"Ġpistas":11026,"izas":11027,"Ġcens":11028,"Ġmob":11029,"uria":11030,"Ġfotog":11031,"ĠdisminuciÃ³n":11032,"ĠGratis":11033,"dens":11034,"ĠsoÃ±":11035,"Ġpresidencial":11036,"aderÃŃa":11037,"onado":11038,"ĠTot":11039,"ĠQuint":11040,"Ġconstituyen":11041,"esv":11042,"uis":11043,"Ġdivertida":11044,"Ġelige":11045,"ĠTanto":11046,"ĠCampeonato":11047,"Ġpresidencia":11048,"Ġllegamos":11049,"ĠCorea":11050,"Ġcolectivos":11051,"rituradora":11052,"Ġresponsabilidades":11053,"ÃŃsica":11054,"Ġdecis":11055,"ermo":11056,"ches":11057,"Ġcolegios":11058,"ĠmontaÃ±as":11059,"Ġinterv":11060,"Ġpreciosa":11061,"Ã¡sticos":11062,"Ġinteriores":11063,"ionistas":11064,"Ġcharla":11065,"Ġfavorita":11066,"Ġsufren":11067,"Ġinquiet":11068,"eamente":11069,"Ġpelea":11070,"rich":11071,"ĠRobert":11072,"Ġasegurado":11073,"ĠAzul":11074,"Ġligeramente":11075,"Ġblogs":11076,"ĠIndustria":11077,"ĠcelebrÃ³":11078,"Ġtoman":11079,"Ġejecutar":11080,"Ġtranquila":11081,"fia":11082,"Ġdefecto":11083,"Ġintegrar":11084,"TM":11085,"Ġdesarrollando":11086,"guna":11087,"Ġligero":11088,"Ġquinto":11089,"Ġinesp":11090,"ĠestÃ¡ndares":11091,"Ġandar":11092,"ĠSig":11093,"Ġsimpl":11094,"Ġcep":11095,"Ġsingular":11096,"ĠPorno":11097,"Ġdedica":11098,"Ġecos":11099,"Ñĥ":11100,"ĠInm":11101,"ÃŃdas":11102,"Ġpecado":11103,"Ġcomis":11104,"Ġevide":11105,"Ġmandato":11106,"Ġsocialista":11107,"Ġclaridad":11108,"Ġedade":11109,"ilas":11110,"ostar":11111,"Publicado":11112,"Ġedades":11113,"ribunales":11114,"ĠAlc":11115,"ĠmetodologÃŃa":11116,"ĠprÃ©stamo":11117,"ĠgalerÃŃa":11118,"Ġpecul":11119,"Ġguarda":11120,"Ġtestimonio":11121,"Ġantiguas":11122,"Ġacert":11123,"Ġdepender":11124,"ĠWi":11125,"icular":11126,"ĠextraÃ±a":11127,"Ġconocidas":11128,"dedo":11129,"Ġescritorio":11130,"untamente":11131,"ĠResoluciÃ³n":11132,"Ġfuncionan":11133,"Ġcumplen":11134,"erancia":11135,"ĠhipÃ³":11136,"ĠencontrÃ©":11137,"olvid":11138,"ĠJur":11139,"ĠXXI":11140,"Ġperpet":11141,"Ġtesis":11142,"Ġflam":11143,"ciende":11144,"atan":11145,"deras":11146,"ĠAustralia":11147,"olly":11148,"ĠFab":11149,"Ġche":11150,"Ġclan":11151,"ĠFranco":11152,"Ġabiertos":11153,"dale":11154,"Ġcoincide":11155,"formaciÃ³n":11156,"Ġprecip":11157,"ĠRock":11158,"Ġvaria":11159,"Ġsigno":11160,"ĠmanifestaciÃ³n":11161,"Ġafectar":11162,"ucciÃ³n":11163,"Ġescond":11164,"Ġocurrir":11165,"ĠCanal":11166,"ĠRaj":11167,"Ġmarcador":11168,"Ġrecogida":11169,"87":11170,"Ġgravedad":11171,"urrido":11172,"ĠvenÃŃa":11173,"ĠparticipÃ³":11174,"Ġgeneran":11175,"Ġmarcar":11176,"gena":11177,"Ġagricultura":11178,"ĠVamos":11179,"ĠBio":11180,"ĠSept":11181,"dores":11182,"aragua":11183,"Ã¡f":11184,"iando":11185,"ĠsÃ©pt":11186,"questa":11187,"gia":11188,"ĠEnergÃŃa":11189,"Ġhabituales":11190,"JA":11191,"Ġinstalado":11192,"Â±":11193,"ecomunicaciones":11194,"rin":11195,"ĠintroducciÃ³n":11196,"Ġcopa":11197,"Ġvotar":11198,"Ġbolsas":11199,"igÃ¼edad":11200,"Ġdirigente":11201,"Ġsolicitudes":11202,"Ġsensaciones":11203,"ĠVi":11204,"Ġabuso":11205,"Ġmud":11206,"ĠRem":11207,"ĠAnuncios":11208,"ĠZapatos":11209,"Ġkg":11210,"Ġke":11211,"Ġlento":11212,"gro":11213,"ĠfundaciÃ³n":11214,"Ġaline":11215,"Ġaci":11216,"Ġvaso":11217,"Ġvivos":11218,"Ġrefres":11219,"diciones":11220,"Ġvuelven":11221,"Ġexcepto":11222,"Ġexperimentar":11223,"Ġbarrios":11224,"Ġgrem":11225,"Ġleyenda":11226,"Ġresidentes":11227,"ĠJard":11228,"endoza":11229,"ĠliberaciÃ³n":11230,"ĠrehabilitaciÃ³n":11231,"ĠinteracciÃ³n":11232,"Ġdiscul":11233,"Ġatribu":11234,"ĠautobÃºs":11235,"ĠObama":11236,"Ġmueve":11237,",.":11238,"Ġcaz":11239,"Ġore":11240,"Ġensal":11241,"TRA":11242,"ĠSamsung":11243,"Ġalcanzado":11244,"ĠDominicana":11245,"ĠUR":11246,"ĠMadre":11247,"ĠMAR":11248,"Ġimplementar":11249,"Ġacumul":11250,"Ġescritos":11251,"Ġprocur":11252,"nsula":11253,"Ġfama":11254,"Ġestima":11255,"diales":11256,"ĠAlgunas":11257,"2012":11258,"uga":11259,"Ġcasco":11260,"ĠCL":11261,"Ġjurado":11262,"desv":11263,"Ġinund":11264,"uls":11265,"Ġenormes":11266,"Ġlluvias":11267,"CN":11268,"Ġprocesamiento":11269,"ĠdepÃ³sito":11270,"ĠUb":11271,"Ġaprendido":11272,"Ġdedo":11273,"Ġimponer":11274,"ĠfÃ¡ciles":11275,"ĠCoci":11276,"Ġadvirt":11277,"Ġtele":11278,"Ġuniforme":11279,"Ġfamosos":11280,"ĠChica":11281,"uelva":11282,"traciÃ³n":11283,"Ġalianza":11284,"ui":11285,"vertir":11286,"ĠMesa":11287,"ĠPrimero":11288,"Ġvideojuegos":11289,"ĠTrad":11290,"Ġpasaba":11291,"Ġmaravillosa":11292,"tock":11293,"ani":11294,"Ġteat":11295,"idurÃŃa":11296,"sfera":11297,"86":11298,"Ġmandatario":11299,"AA":11300,"300":11301,"ĠAgua":11302,"Ġanuales":11303,"ntesis":11304,"Ġrespond":11305,"Ġlimitado":11306,"ĠMall":11307,"orden":11308,"Ġdens":11309,"onga":11310,"Ġrelativamente":11311,"Ġinternos":11312,"ĠJaime":11313,"ĠLuz":11314,"Ġculturas":11315,"ĠmÃŃa":11316,"fect":11317,"Ġdisminuir":11318,"Ġcargar":11319,"hum":11320,"illones":11321,"Ġsubsid":11322,"acÃŃfico":11323,"Ġdeclarado":11324,"Ġgerente":11325,"Ġreporta":11326,"Ġconferencias":11327,"ĠUl":11328,"Ġdeterminadas":11329,"ĠUniversitario":11330,"Ġregistrar":11331,"fol":11332,"Ġemis":11333,"Ġcostumbres":11334,"Ġmultiplic":11335,"ĠdiversiÃ³n":11336,"Ġsolicita":11337,"Ġxxx":11338,"ĠSigue":11339,"ĠespecÃŃficamente":11340,"Ġsera":11341,"Ġclubes":11342,"Ġtejidos":11343,"ĠRich":11344,"Ġjurisdic":11345,"Ġsemin":11346,"ilitar":11347,"LAN":11348,"Ġgesto":11349,"itude":11350,"ĠTab":11351,"Ġamericano":11352,"Ġobses":11353,"ifi":11354,"Ġharina":11355,"ĠcapitÃ¡n":11356,"ĠMarcos":11357,"quero":11358,"Ġtrascend":11359,"Ġinclus":11360,"Ã¡rs":11361,"VD":11362,"Ġintu":11363,"Ġvieron":11364,"Ġafuera":11365,"nciana":11366,"ĠCampo":11367,"Ġpudiendo":11368,"ĠMaster":11369,"ubo":11370,"Ġlavado":11371,"âĢĺ":11372,"Ġdesv":11373,"Ġmenci":11374,"Ġredi":11375,"Ġsorteo":11376,"aderos":11377,"Ġplac":11378,"Ġhicimos":11379,"Ġpollo":11380,"ĠgastronomÃŃa":11381,"ĠpÃ¡":11382,"ĠestadÃŃsticas":11383,"Ġacar":11384,"Ġdid":11385,"nvid":11386,"Ġobliga":11387,"ĠWh":11388,"Ġvs":11389,"ĠnÃºcleo":11390,"ĠCAR":11391,"Ġreempla":11392,"Ġexquis":11393,"Ġrestaurar":11394,"Ġvariable":11395,"Ġrepente":11396,"Ġindig":11397,"Ġfacebook":11398,"acruz":11399,"ĠdepresiÃ³n":11400,"ĠLED":11401,"Ġcuartos":11402,"Ġquir":11403,"Ġcomponente":11404,"ĠCÃ¡diz":11405,"ĠingenierÃŃa":11406,"ancÃŃas":11407,"retas":11408,"envid":11409,"Ġwebs":11410,"Sab":11411,"Ġverte":11412,"ĠCÃ©sar":11413,"ĠNada":11414,"Ġterrible":11415,"Ġincorporar":11416,"Ġcombinar":11417,"Ġjuvenil":11418,"ĠUSB":11419,"Ġconclusiones":11420,"Ġbeber":11421,"ĠampliaciÃ³n":11422,"Ġlinea":11423,"ĠposesiÃ³n":11424,"Ġtestigos":11425,"Ġvuelva":11426,"ĠhectÃ¡":11427,"Porque":11428,"ortuna":11429,"Ġsana":11430,"Ġvalorar":11431,"guida":11432,"icando":11433,"ĠdÃ©ficit":11434,"ĠverÃ¡":11435,"ĠEmpleo":11436,"ĠInnov":11437,"Ġfascin":11438,"Ã¡zquez":11439,"Ġestuviera":11440,"ĠBiblia":11441,"ĠSupremo":11442,"ĠDiputaciÃ³n":11443,"Ġobtiene":11444,"Ġtubo":11445,"Ġfinancieras":11446,"Ġbella":11447,"Ġfrecuentes":11448,"Ġhard":11449,"Ġconsumir":11450,"ĠLev":11451,"ĠAdri":11452,"Ġmaltra":11453,"Ġhacerle":11454,"andante":11455,"ĠHemos":11456,"Ġcinc":11457,"Ġinevit":11458,"Ġensayo":11459,"Ġvapor":11460,"Ġbrillo":11461,"ĠgrabaciÃ³n":11462,"ĠalgodÃ³n":11463,"Ġemerg":11464,"Ġdepartamentos":11465,"isible":11466,"ĠJimÃ©nez":11467,"Ġvicepresidente":11468,"Ġmierda":11469,"Ġpreguntar":11470,"Ġdemandas":11471,"ASA":11472,"Ġbrom":11473,"ĠelÃ©ctricos":11474,"Ġterrenos":11475,"Ġlanza":11476,"Ġbest":11477,"Ġasim":11478,"Ot":11479,"Ġambientales":11480,"Ġhechas":11481,"Ġperjud":11482,"Ġlago":11483,"Ġsorprender":11484,"ĠEstatal":11485,"Ġvenezolano":11486,"ĠArquit":11487,"ĠPresup":11488,"Ġnovedad":11489,"eda":11490,"ĠOccid":11491,"Ġasust":11492,"oses":11493,"ĠdÃ³lar":11494,"ĠTÃ©cnico":11495,"Ġpiensan":11496,"ĠcomercializaciÃ³n":11497,"Ġatrev":11498,"ÂĶ":11499,"ĠconocÃŃa":11500,"Ġgiro":11501,"Ġterritorios":11502,"ĠIgual":11503,"ricas":11504,"ĠDocum":11505,"Ġjuguetes":11506,"Ġmontar":11507,"ĠinvitaciÃ³n":11508,"Ġdesconocido":11509,"Ġcontado":11510,"Ġincluida":11511,"fun":11512,"Ġacusado":11513,"ĠCond":11514,"Ġdescont":11515,"ĠPie":11516,"Ġpuse":11517,"Ġenvid":11518,"Ġfacilita":11519,"Ġviejos":11520,"ĠpensÃ©":11521,"edora":11522,"Ġmantuvo":11523,"Ġracional":11524,"ĠMult":11525,"Ġnotable":11526,"Ġhuelga":11527,"Cre":11528,"ÃŃnsula":11529,"Ġaparatos":11530,"Ġcentrales":11531,"Ġatrap":11532,"Ġpresupuestos":11533,"Ġciudadana":11534,"Ġov":11535,"sierto":11536,"Ġtransit":11537,"ness":11538,"esb":11539,"Ġfronteras":11540,"Ġconvenc":11541,"ÃŃrez":11542,"Ġescucha":11543,"ĠproyecciÃ³n":11544,"ĠBet":11545,"Ġescolares":11546,"ĠprevÃ©":11547,"dam":11548,"Ġextin":11549,"Ġintercambi":11550,"Ġprepara":11551,"ĠBay":11552,"CON":11553,"ĠautÃ©ntico":11554,"reet":11555,"ĠmotivaciÃ³n":11556,"ĠSep":11557,"Ġllevamos":11558,"ĠalcanzÃ³":11559,"Ġindicar":11560,"Ġsuger":11561,"Ġposteriores":11562,"Ġavenida":11563,"ecte":11564,"ĠMax":11565,"Ġcolaboradores":11566,"Ġcolaborar":11567,"Ġdescubrimiento":11568,"Ġfacult":11569,"danza":11570,"Ġsend":11571,"Ġindemn":11572,"cida":11573,"Ġvenden":11574,"nmar":11575,"ĠautomÃ¡tica":11576,"oros":11577,"Ġincons":11578,"Ġdemuest":11579,"esap":11580,"ĠMendoza":11581,"Dos":11582,"Ġgrabar":11583,"ĠSalÃ³n":11584,"ĠÃ©tica":11585,"Ġ52":11586,"Ġperfiles":11587,"ementos":11588,"Ġoptar":11589,"ĠDonald":11590,"Ġsorprendi":11591,"Ġportada":11592,"Ġtetas":11593,"ĠvÃŃnculo":11594,"Ġdispuestos":11595,"Ġmadrid":11596,"Ġentretenimiento":11597,"ĠIndustrial":11598,"erra":11599,"Ġmadrile":11600,"adolid":11601,"omar":11602,"ĠCR":11603,"Ġizquierdo":11604,"Ġcompetir":11605,"ĠTiempo":11606,"Ġjuntas":11607,"Ġdecenas":11608,"Ġintroduc":11609,"Ġfib":11610,"Ġexpediente":11611,"ĠSelecciÃ³n":11612,"Ġpresentaciones":11613,"ĠcapÃŃtulos":11614,"Ġcolonia":11615,"facciÃ³n":11616,"Ġconcejal":11617,"Ġama":11618,"Ġbolsillo":11619,"ĠSL":11620,"Ġnovelas":11621,"Ġcaro":11622,"Ġamante":11623,"ĠMiami":11624,"inf":11625,"arto":11626,"Ġderivados":11627,"Ġalrededores":11628,"Ġconscientes":11629,"Ġquedando":11630,"Ġnegociaciones":11631,"onduras":11632,"ĠSport":11633,"ĠRoc":11634,"CU":11635,"Ġadministrativo":11636,"Ġimportar":11637,"Ġpasaron":11638,"ĠBach":11639,"ĠParticip":11640,"Ġencontraron":11641,"Ġampar":11642,"Ġonda":11643,"Ġasiento":11644,"Ġrurales":11645,"PI":11646,"ĠGustavo":11647,"Ġtorn":11648,"engan":11649,"Ġabsur":11650,"uertos":11651,"ĠmÃºsculos":11652,"letÃŃn":11653,"Ġbordo":11654,"Ġpositivos":11655,"Ġdescansar":11656,"Ah":11657,"desap":11658,"hola":11659,"Ġdiagnos":11660,"ĠEditor":11661,"Ġprestar":11662,"76":11663,"ĠDoctor":11664,"Ġincap":11665,"Ã©rrez":11666,"izont":11667,"Ġcadenas":11668,"Ġrecinto":11669,"ĠMarina":11670,"Ġmuscular":11671,"Ġorganiza":11672,"400":11673,"ĠEscorts":11674,"seguridad":11675,"Ġinolvid":11676,"Ġpresentaron":11677,"Ġasiste":11678,"ĠCe":11679,"taciones":11680,"ĠquedarÃ¡":11681,"TAN":11682,"agan":11683,"Ġencontrarse":11684,"Ġconsecut":11685,"umer":11686,"onales":11687,"Ġcircular":11688,"Ġemisiones":11689,"79":11690,"uestamente":11691,"uyentes":11692,"Ġmanteniendo":11693,"Ġincert":11694,"Ġresistente":11695,"Ġsalidas":11696,"Fran":11697,"amanca":11698,"arch":11699,"Ġfijo":11700,"uss":11701,"Ġfundador":11702,"Ġreligiosa":11703,"ĠFamilia":11704,"defin":11705,"ĠGRA":11706,"TOR":11707,"Ġpresentada":11708,"ĠDesp":11709,"ÃŃtimo":11710,"ĠBomb":11711,"ĠHel":11712,"Ġextender":11713,"Ġhuevo":11714,"Pres":11715,"ĠtÃŃpico":11716,"CD":11717,"Ġnube":11718,"Ġvilla":11719,"Ġpetrol":11720,"Ġpulm":11721,"Ġsufrimiento":11722,"Ġmusul":11723,"Ġintensa":11724,"ĠIv":11725,"VE":11726,"Ġgloria":11727,"ĠOrig":11728,"ĠPueblo":11729,"ĠTenerife":11730,"ticas":11731,"Ġdormitorio":11732,"ĠBiblioteca":11733,"Ġregionales":11734,"svi":11735,"ĠTampoco":11736,"Ġavanzado":11737,"Ġrescate":11738,"Ġcorriendo":11739,"teriormente":11740,"Ġsalarios":11741,"utiÃ©rrez":11742,"ady":11743,"Ġpaisajes":11744,"Ġdesap":11745,"Ġsupermerc":11746,"Ġcontinuo":11747,"etenciÃ³n":11748,"mat":11749,"dit":11750,"Ġposeen":11751,"ĠRomero":11752,"ĠviolaciÃ³n":11753,"enmar":11754,"Ġdesenc":11755,"detenciÃ³n":11756,"Ġquinta":11757,"ĠgrÃ¡ficos":11758,"Ġgenerado":11759,"ĠGuadalajara":11760,"Ġfat":11761,"Ã³tica":11762,"Ġputa":11763,"ĠDeleg":11764,"ĠÃį":11765,"Ġtarifa":11766,"ĠÃģlvarez":11767,"norm":11768,"ĠcertificaciÃ³n":11769,"ĠAnim":11770,"Tu":11771,"GR":11772,"ĠGl":11773,"ĠðŁĺ":11774,"Ġtransmite":11775,"DD":11776,"ĠcaÃ±":11777,"organ":11778,"ĠmercancÃŃas":11779,"zones":11780,"Tube":11781,"ĠJoaqu":11782,"Ġsanciones":11783,"ezco":11784,"porque":11785,"acar":11786,"ĠPatrimonio":11787,"Ġcualidades":11788,"ĠFuente":11789,"Ġsostiene":11790,"Ġloco":11791,"unde":11792,"omosex":11793,"Ġescritores":11794,"ĠcÃ¡lculo":11795,"Ġmedias":11796,"Ġcomplej":11797,"Ġcitado":11798,"ĠdetenciÃ³n":11799,"neas":11800,"iologÃŃa":11801,"Ġcomplemento":11802,"Ġcomienzan":11803,"tiquetas":11804,"Ġcompromisos":11805,"ĠChrist":11806,"Ġembarc":11807,"Ġadministrativa":11808,"ĠNatural":11809,"Ġlast":11810,"azar":11811,"illado":11812,"Ġsentimos":11813,"Ġtratados":11814,"ndente":11815,"ĠsiguiÃ³":11816,"ieras":11817,"Ġunir":11818,"clo":11819,"ĠclimÃ¡tico":11820,"Ġvuestros":11821,"tiva":11822,"ds":11823,"ĠLl":11824,"Ġvisible":11825,"ĠMercedes":11826,"amentales":11827,"Ġalemana":11828,"Ġcapas":11829,"vest":11830,"Ġenmar":11831,"guÃŃ":11832,"Ġbebe":11833,"met":11834,"ĠreconociÃ³":11835,"Ã³nicos":11836,"eal":11837,"ucristo":11838,"Ġespectadores":11839,"guen":11840,"ĠAgust":11841,"Ġpastel":11842,"Ġsuceder":11843,"Ġdefici":11844,"emÃ¡tico":11845,"ĠSAN":11846,"Ġvencer":11847,"Ġencantado":11848,"Ġdesean":11849,"Ġbarro":11850,"Ġlevantar":11851,"Ġtapa":11852,"Ġjardines":11853,"ĠObr":11854,"ĠKa":11855,"any":11856,"Ġexigir":11857,"orenzo":11858,"Ġout":11859,"Ġdobl":11860,"Ġcaza":11861,"ĠdiseÃ±ar":11862,"Ġcompartido":11863,"itudes":11864,"Ġcup":11865,"Ġrup":11866,"esac":11867,"zi":11868,"ĠPalma":11869,"Ġlink":11870,"Ġartificial":11871,"»¿":11872,"Ġcil":11873,"Ġempiezan":11874,"Ã¡metro":11875,"Ġsienta":11876,"Ġestuve":11877,"ĠCompaÃ±":11878,"entre":11879,"Ġdirecciones":11880,"igh":11881,"ejar":11882,"Busc":11883,"Ġesquema":11884,"Ġvengan":11885,"Ġascenso":11886,"Ġrenun":11887,"Ġcortar":11888,"ĠminerÃŃa":11889,"Ġperjuicio":11890,"ĠToledo":11891,"ĠatmÃ³":11892,"Ġmuro":11893,"Ġvisitante":11894,"Ġ1000":11895,"ĠvotaciÃ³n":11896,"Ġdanza":11897,"Ġcortos":11898,"desac":11899,"Ġincidencia":11900,"Ġcastillo":11901,"Ġmodernos":11902,"ĠBot":11903,"cotas":11904,"garÃ¡":11905,"Ġoccidental":11906,"Ġinsufici":11907,"erse":11908,"ugue":11909,"ĠhabÃ©is":11910,"Ġmiel":11911,"Ġrentabilidad":11912,"rupciÃ³n":11913,"itco":11914,"2011":11915,"Ġsupera":11916,"Ġimpedir":11917,"Ġpatrocin":11918,"59":11919,"ĠRamÃŃrez":11920,"Ġesperado":11921,"Ġantecedentes":11922,"ĠBlue":11923,"ĠDemoc":11924,"Ġimprimir":11925,"Ġmantenerse":11926,"ĠdiscriminaciÃ³n":11927,"ĠNego":11928,"Ġcomentado":11929,"muy":11930,"ĠSA":11931,"Ġjunta":11932,"Ġdetenidos":11933,"Ġentendi":11934,"rases":11935,"Ġvistazo":11936,"Ġtira":11937,"riles":11938,"pan":11939,"ĠAlfre":11940,"Ġsupo":11941,"Ġpoblaciones":11942,"FOR":11943,"Ġconvierten":11944,"Ã²":11945,"Pr":11946,"ĠactÃºa":11947,"JO":11948,"Ġcalma":11949,"tle":11950,"Ġbrind":11951,"ersiÃ³n":11952,"ositores":11953,"ĠRajoy":11954,"ĠbebÃ©s":11955,"ĠGeorge":11956,"Ġaclarar":11957,"Ġpromete":11958,"Ġjudiciales":11959,"Ġ56":11960,"Ġcrean":11961,"Tal":11962,"Ġangust":11963,"Ġlleve":11964,"Ġ1997":11965,"gÃ¼enza":11966,"ĠJudicial":11967,"Ġrecibieron":11968,"ecÃ©":11969,"ÃŃgenes":11970,"ĠVit":11971,"hay":11972,"Ġcomenzado":11973,"ĠRecursos":11974,"Ġencantan":11975,"ll":11976,"endiente":11977,"Ġpreparados":11978,"Ġmoviliz":11979,"Ġafectado":11980,"onente":11981,"POR":11982,"Ġtratan":11983,"Ġpromociones":11984,"pers":11985,"Ġhidra":11986,"ĠAgricultura":11987,"ellos":11988,"ĠAll":11989,"Ġhospitales":11990,"uelta":11991,"identes":11992,"ĠConce":11993,"Ġgimnasio":11994,"Ġformatos":11995,"Ġurbana":11996,"ĠâĢĿ":11997,"ĠRevista":11998,"Ġ99":11999,"Ġcreador":12000,"esvi":12001,"Ġlindo":12002,"Ġzo":12003,"Pa":12004,"Ġinteligentes":12005,"Ġinstant":12006,"duzca":12007,"iÃ±os":12008,"Ġabuela":12009,"Ġheridos":12010,"colas":12011,"achos":12012,"Ġdesgracia":12013,"desvi":12014,"Ġmultim":12015,"Ġmg":12016,"EspaÃ±a":12017,"ĠLee":12018,"Ġpasamos":12019,"Ġpresc":12020,"Ġreparto":12021,"Ġquedaba":12022,"idora":12023,"Ġdesarrollan":12024,"à¸":12025,"Ġnev":12026,"Ġplanos":12027,"Ġpale":12028,"Ġactualizar":12029,"Ġindependientemente":12030,"grimas":12031,"Ġurgente":12032,"iros":12033,"Ġrevela":12034,"Ġrealizarse":12035,"Ġcompuesta":12036,"Ġodi":12037,"ĠinfecciÃ³n":12038,"Ġdesac":12039,"Ġtim":12040,"Ġsorprendente":12041,"anales":12042,"entaria":12043,"Ġasimismo":12044,"Ġretorno":12045,"Ġesm":12046,"Ġtradiciones":12047,"Rep":12048,"ĠÂ°":12049,"ENCIA":12050,"Ġgrasas":12051,"Ġsepa":12052,"ĠME":12053,"Ġparado":12054,"ĠLaura":12055,"Ġsuya":12056,"ĠObserv":12057,"Actualmente":12058,"oli":12059,"iante":12060,"Ġcondena":12061,"Ġbis":12062,"Ġmanifiesto":12063,"Ġcomparte":12064,"ĠrestauraciÃ³n":12065,"Ġpiz":12066,"cionario":12067,"ĠDisf":12068,"Ġsient":12069,"Ġpare":12070,"ĠfÃŃsicos":12071,"Ġrespetar":12072,"Ġtardes":12073,"Ġcercanos":12074,"oriales":12075,"ĠenergÃŃas":12076,"Ġexplorar":12077,"ĠInglÃ©s":12078,"ĠviviÃ³":12079,"ĠGutiÃ©rrez":12080,"ĠArgent":12081,"Ġtreme":12082,"ĠMancha":12083,"Ġmetab":12084,"Ġtabl":12085,"Ġpeligroso":12086,"ĠPuebla":12087,"ĠRivera":12088,"mÃ¡n":12089,"ĠNicaragua":12090,"angelio":12091,"Ġchup":12092,"icil":12093,"Ġbebida":12094,"Ġbares":12095,"ĠMariano":12096,"aminas":12097,"Ġmentira":12098,"Ã³digos":12099,"Ġreconocida":12100,"ucos":12101,"Ġmantend":12102,"ĠSeptiembre":12103,"ĠCic":12104,"ĠCamb":12105,"ĠCatÃ³lica":12106,"Ġafric":12107,"Ġestatales":12108,"Ġtriunf":12109,"Ġpensiones":12110,"ĠdueÃ±os":12111,"een":12112,"ĠClÃŃn":12113,"Ġsucedido":12114,"Ġcomenta":12115,"ĠPromo":12116,"Ġligera":12117,"Ġcoj":12118,"ĠAcces":12119,"ĠTime":12120,"Ġdulces":12121,"Ġlocalidades":12122,"Ġotorga":12123,"Ġcambiando":12124,"Ġejemplares":12125,"ĠirÃ¡":12126,"anten":12127,"icismo":12128,"ĠResta":12129,"Ġhem":12130,"ĠâĢľÂ¿":12131,"Ġabus":12132,"Ġconsiderada":12133,"ford":12134,"Ġadulto":12135,"Ġnormales":12136,"Ġengan":12137,"Ġconceb":12138,"Ġavanzada":12139,"><":12140,"Ġponga":12141,"Ġcumplido":12142,"Ãºst":12143,"ĠpresentarÃ¡":12144,"ĠPU":12145,"ĠsucediÃ³":12146,"Ġprofundamente":12147,"Ġvalle":12148,"Ġrefrig":12149,"igan":12150,"Ġvertical":12151,"Ġgastar":12152,"Ġpresentamos":12153,"Ġanime":12154,"Ġexterna":12155,"Ġradical":12156,"entarias":12157,"Ġindicadores":12158,"zÃ³":12159,"endiendo":12160,"ecos":12161,"Ġmanifiesta":12162,"ĠpolÃ©mica":12163,"Ġoscuridad":12164,"ĠGrecia":12165,"Ġobviamente":12166,"ĠBu":12167,"abria":12168,"ĠInforme":12169,"Ġaparc":12170,"Ġpreside":12171,"Ġconsume":12172,"Ġpinta":12173,"ĠEncuentra":12174,"atado":12175,"Ġdesvi":12176,"Ġexag":12177,"Ġprocedentes":12178,"Ġdespacho":12179,"ĠdirÃŃa":12180,"Ġbotella":12181,"cop":12182,"Po":12183,"ĠMovimiento":12184,"ĠHip":12185,"data":12186,"Ġaconsej":12187,"Ġextremadamente":12188,"Ġllen":12189,"Ġtransparente":12190,"Ġexposiciones":12191,"Ġnavegar":12192,"Ġcaptura":12193,"Ġlograron":12194,"roll":12195,"rerÃŃa":12196,"Ġdeportivos":12197,"ĠPÃºblicas":12198,"Ġcrece":12199,"Ġpoderoso":12200,"rÃ³f":12201,"ĠTop":12202,"Ġnor":12203,"Ġcruc":12204,"ĠElectoral":12205,"Ġhumilde":12206,"Ġsustit":12207,"Ġefectivos":12208,"Ġhomosex":12209,"obo":12210,"Ġpedidos":12211,"ĠFrank":12212,"strucciÃ³n":12213,"Ġempate":12214,"adar":12215,"ĠartÃŃstico":12216,"Ġahi":12217,"Ġbuscas":12218,"Entonces":12219,"Ã¡nicas":12220,"ĠIma":12221,"Ġgasolina":12222,"Ã³viles":12223,"Ġconsa":12224,"Ġdirectivos":12225,"ĠÃģrea":12226,"ciendo":12227,"Ġpresupuest":12228,"ĠUrb":12229,"Ġindispensable":12230,"Ġvitamina":12231,"ĠJuz":12232,"ĠdelegaciÃ³n":12233,"Ġdenuncias":12234,"ĠocupaciÃ³n":12235,"Ġefectivamente":12236,"onor":12237,"ĠdidÃ¡ct":12238,"Ġministerio":12239,"bos":12240,"ĠgrÃ¡fica":12241,"Ġpolla":12242,"ĠcoÃ±o":12243,"ĠdesafÃŃos":12244,"Ġrelativa":12245,"Ġpensamos":12246,"ĠdesapariciÃ³n":12247,"ĠprÃ©stamos":12248,"Ġpaquetes":12249,"Ġeducativas":12250,"Ġretirar":12251,"Ġexplor":12252,"Ġhijas":12253,"ĠtecnolÃ³gica":12254,"dy":12255,"ocos":12256,"Ġdivide":12257,"Ġconfirmado":12258,"guera":12259,"BRE":12260,"ĠacompaÃ±ar":12261,"atra":12262,"Ġcuchar":12263,"Ġsaque":12264,"Ġchina":12265,"ĠVega":12266,"ezcan":12267,"har":12268,"Ġcontener":12269,"ĠHola":12270,"57":12271,"ĠcambiÃ³":12272,"ĠporquÃ©":12273,"ĠconsiderÃ³":12274,"idable":12275,"Ġ180":12276,"citos":12277,"Ġpublicados":12278,"ĠLÃŃnea":12279,"Ġhombro":12280,"ierro":12281,"ĠencontrarÃ¡":12282,"oncesto":12283,"ĠNA":12284,"Ġpastor":12285,"Ġllave":12286,"ache":12287,"queros":12288,"Ġvestir":12289,"fi":12290,"hal":12291,"Ġcreencias":12292,"icanos":12293,"NI":12294,"Ġpiden":12295,"ĠValladolid":12296,"ĠCro":12297,"Ã¡neamente":12298,"ĠWil":12299,"ĠJesucristo":12300,"Ġaj":12301,"bes":12302,"taba":12303,"Ġpertenecen":12304,"Ġcontund":12305,"Ġediciones":12306,"uoso":12307,"Ġpusieron":12308,"soro":12309,"useos":12310,"Ġmoch":12311,"Ġconduci":12312,"ĠMotor":12313,"Ġcomplejos":12314,"idro":12315,"ĠParaguay":12316,"Ġsupongo":12317,"inen":12318,"Ġatraer":12319,"Ġrecal":12320,"Ġnoved":12321,"ĠdevoluciÃ³n":12322,"Ġencend":12323,"ĠhabÃŃamos":12324,"ĠcontraseÃ±a":12325,"Ġextrema":12326,"Ġlider":12327,"ĠdÃ©ci":12328,"Ġgatos":12329,"Ġ54":12330,"PR":12331,"char":12332,"Ġmanio":12333,"gÃ³g":12334,"ĠGuerrero":12335,"orma":12336,"ĠanimaciÃ³n":12337,"Ġesqu":12338,"Ġtropas":12339,"ĠhectÃ¡reas":12340,"Sus":12341,"ĠXVI":12342,"Ġ1996":12343,"Ġdisfrute":12344,"Ġseparado":12345,"gil":12346,"ĠenseÃ±a":12347,"ĠcadÃ¡":12348,"Ġuniversitarios":12349,"Ġintegridad":12350,"ĠLorenzo":12351,"Ġconfirmar":12352,"Ġextraordinaria":12353,"diente":12354,"ĠDirectiva":12355,"Ġacabo":12356,"ĠLan":12357,"ĠacadÃ©mica":12358,"Ġverla":12359,"Ġexpresiones":12360,"Ġira":12361,"Ġentrevistas":12362,"Ġepisodios":12363,"Ġultra":12364,"Ġpeculiar":12365,"Ġcompatible":12366,"Ġpapa":12367,"iciembre":12368,"ĠReina":12369,"ÃŃcolas":12370,"ĠSha":12371,"Ġfaltar":12372,"ĠChar":12373,"ĠestÃ¡bamos":12374,"Ġreperc":12375,"ĠtÃŃo":12376,"Ã±oz":12377,"Ġfases":12378,"Imp":12379,"Ġnavidad":12380,"Ġpreocupa":12381,"ĠdebiÃ³":12382,"Ġsobrevivir":12383,"ĠSI":12384,"Ġ51":12385,"Ġcincuenta":12386,"Ġcombina":12387,"Ġprestigio":12388,"Ġinvitado":12389,"Ġrasgos":12390,"Ġdepend":12391,"Ma":12392,"Ġpartid":12393,"Ġ57":12394,"rataciÃ³n":12395,"zados":12396,"Ã³tico":12397,".).":12398,"Jos":12399,"Ġfrecuent":12400,"Ġhorizo":12401,"Ġ1994":12402,"ĠAÃºn":12403,"Ã³st":12404,"esierto":12405,"desierto":12406,"arga":12407,"ĠhuÃ©spedes":12408,"mov":12409,"grados":12410,"Ġoficialmente":12411,"Ġave":12412,"ĠEgipto":12413,"ĠÃ©xitos":12414,"Ġpublici":12415,"Ġnavide":12416,"ĠperdÃ³n":12417,"Ġclasific":12418,"Ġllenar":12419,"2010":12420,"Ġalza":12421,"ĠautÃ©ntica":12422,"ĠJac":12423,"Ġinfer":12424,"Ġincendio":12425,"Ã¡us":12426,"Ġincorpora":12427,"Ġcristiana":12428,"ĠobservaciÃ³n":12429,"Ġocultar":12430,"ĠPam":12431,"Ġsorprende":12432,"Ġhorizont":12433,"Ġcotidiana":12434,"ensor":12435,"ĠsabidurÃŃa":12436,"ĠcÃ©":12437,"Ġmatr":12438,"estructuras":12439,"ĠescÃ¡nd":12440,"atl":12441,"Ġperdida":12442,"ĠAses":12443,"ĠKir":12444,"olÃŃ":12445,"Ġtestigo":12446,"ARC":12447,"Ġinicios":12448,"ĠAlgo":12449,"Ġcostar":12450,"ĠMod":12451,"Ġpion":12452,"Ġcrees":12453,"Ġbosques":12454,"xe":12455,"Ġadquiere":12456,"ĠpreguntÃ³":12457,"ĠNuestros":12458,"Ġescuchado":12459,"ika":12460,"Ġ72":12461,"Ġdestr":12462,"esin":12463,"Ġmart":12464,"incesa":12465,"ĠWest":12466,"TOS":12467,"Ġintegrada":12468,"Ã¡neo":12469,"Ġtextura":12470,"ĠBajo":12471,"Ġmonedas":12472,"lique":12473,"ĠlÃ³gico":12474,"ĠseguÃŃa":12475,"Ser":12476,"Ġaula":12477,"Ġsupuestamente":12478,"neos":12479,"Ġsueldo":12480,"Ġafectadas":12481,"Ġcontando":12482,"iebre":12483,"Ġnegar":12484,"ĠTelev":12485,"Ġseleccionado":12486,"Ġare":12487,"Ġdestinados":12488,"Ġcomisiones":12489,"ĠconcluyÃ³":12490,"56":12491,"Ġposicionamiento":12492,"ĠdeterminaciÃ³n":12493,"Ġlam":12494,"ĠTre":12495,"Todas":12496,"Ġtemporadas":12497,"ĠHonduras":12498,"Ġtrasera":12499,"Ġblancas":12500,"Ġdesierto":12501,"Ġnecesitaba":12502,"Ġexigencias":12503,"Ġjajaja":12504,"Ġsano":12505,"Ã§a":12506,"Ġelig":12507,"rÃ¡nd":12508,"800":12509,"Ġadecuados":12510,"ĠcÃŃrculo":12511,"ANA":12512,"ĠuÃ±as":12513,"BS":12514,"ĠCerv":12515,"PC":12516,"Ġhumanas":12517,"cr":12518,"iki":12519,"ĠED":12520,"Ġsoledad":12521,"desin":12522,"Ġbast":12523,"ĠVenta":12524,"uses":12525,"ĠtecnolÃ³gico":12526,"Ġterritorial":12527,"lfo":12528,"Ġganadores":12529,"Ã¡micas":12530,"ĠcuÃ¡nt":12531,"Ġrellen":12532,"vado":12533,"Ġinflu":12534,"Ġasociado":12535,"Ġdoctrina":12536,"ĠPresidencia":12537,"red":12538,"Ġimpro":12539,"ĠEnferm":12540,"Ġpist":12541,"Ġintest":12542,"Ġcarreteras":12543,"Ã©pt":12544,"Ġrealice":12545,"Ġnumero":12546,"Ġcro":12547,"Ġmaravilla":12548,"uerte":12549,"Ġ1995":12550,"stein":12551,"Ġsexy":12552,"Ġrayos":12553,"Ġempresariales":12554,"Ġtrage":12555,"ĠEmpres":12556,"iness":12557,"Ġinversores":12558,"Ġsentado":12559,"Ġconviene":12560,"Ġargentinos":12561,"ush":12562,"ĠcalificaciÃ³n":12563,"Ġparticipa":12564,"Ġlimitada":12565,"ĠsitÃºa":12566,"Ġfortuna":12567,"Ġtraves":12568,"Ġsolos":12569,"Ġmu":12570,"Ġpilotos":12571,"Encuent":12572,"Ġdesper":12573,"Ġoperadores":12574,"hh":12575,"Ġencuentras":12576,"low":12577,"Ġconforman":12578,"Ġcaballos":12579,"Ġsemestre":12580,"Ġdestruir":12581,"Ġenfrenta":12582,"Ġarreglar":12583,"mal":12584,"ĠToda":12585,"Ġrodea":12586,"umas":12587,"Ġlogros":12588,"adilla":12589,"ĠMate":12590,"ĠAF":12591,"Ġtomo":12592,"Ġparezca":12593,"ĠacompaÃ±a":12594,"uado":12595,"ĠAngel":12596,"ĠHijo":12597,"Ġterrorismo":12598,"ilan":12599,"Ġraci":12600,"ĠJunio":12601,"Ġgenerando":12602,"Ġbronce":12603,"vila":12604,"Ġentera":12605,"ĠrÃŃos":12606,"Ġcen":12607,"ĠFront":12608,"Ġtitulares":12609,"Ġdarte":12610,"Ġcomparten":12611,"Ġmasas":12612,"istente":12613,"ĠvocaciÃ³n":12614,"ĠconcesiÃ³n":12615,"Ġlimitaciones":12616,"ĠMauricio":12617,"Ġrelevancia":12618,"Ġcorregir":12619,"Ġpico":12620,"ĠaprobÃ³":12621,"ĠExpl":12622,"rendimiento":12623,"Ġayudarte":12624,"Ġreflexionar":12625,"Ġarquitect":12626,"ĠLiter":12627,"ĠTO":12628,"dea":12629,"Pas":12630,"Ġhubieran":12631,"Ġinmueble":12632,"Ġinvestigador":12633,"Ġpatrones":12634,"Ġnaz":12635,"Ġemprendedores":12636,"ĠSistemas":12637,"Ġcreativo":12638,"ocho":12639,"ĠinauguraciÃ³n":12640,"ĠMinistro":12641,"Ġprofesora":12642,"Ġreforzar":12643,"Ġdecorar":12644,"ĠatmÃ³sfera":12645,"ãĢ":12646,"estim":12647,"diciÃ³n":12648,"icciones":12649,"set":12650,"egust":12651,"Ġempleos":12652,"ĠquÃŃmicos":12653,"Ġchav":12654,"ĠInfantil":12655,"degust":12656,"Ġculto":12657,"Ġempe":12658,"ĠjudÃŃos":12659,"Ġaviones":12660,"Ã¡sico":12661,"Ġmantenido":12662,"ivir":12663,"entenario":12664,"ĠAtlÃ©tico":12665,"turb":12666,"ĠMem":12667,"ĠFlorida":12668,"tiz":12669,"back":12670,"Ã©dito":12671,"Ġsupervis":12672,"ĠbÃ¡sicamente":12673,"ĠOrtega":12674,"Ġincom":12675,"cita":12676,"Ġsalieron":12677,"ĠEstat":12678,"tion":12679,"Ġetiqueta":12680,"ionista":12681,"nen":12682,"Ġ59":12683,"Ġarrep":12684,"Ġobtenidos":12685,"ĠFuerza":12686,"tran":12687,"ĠCaracas":12688,"ĠDeportivo":12689,"Ġcontraste":12690,"ENA":12691,"Ġbonitas":12692,"Ġdesin":12693,"Ġcantar":12694,"ĠofreciÃ³":12695,"ĠAbog":12696,"Ġplazos":12697,"ĠdÃ©bil":12698,"rs":12699,"endiÃ³":12700,"****":12701,"Ġdecirle":12702,"usk":12703,"Ġtrastornos":12704,"Ġlap":12705,"vÃŃa":12706,"Ġentrevist":12707,"Ġsecundarios":12708,"rime":12709,"Ġusados":12710,"grada":12711,"Ġcontaba":12712,"Ġsensible":12713,"Ġequipamiento":12714,"Ġgem":12715,"Algunos":12716,"Ġsombras":12717,"Ġcuarenta":12718,"ĠCualquier":12719,"Ġ1990":12720,"Ġdegust":12721,"Ġperdiendo":12722,"CuÃ¡l":12723,"Ġdescribir":12724,"Ġprofundi":12725,"ĠarmonÃŃa":12726,"ĠautomÃ¡tico":12727,"Ġcometido":12728,"Ġconexiones":12729,"Ġparques":12730,"Ġcuente":12731,"ĠLucas":12732,"Ġtib":12733,"Ġcomplejidad":12734,"Ġanuncia":12735,"ĠTri":12736,"Ġtardar":12737,"Ġtristeza":12738,"Ġimpide":12739,"Ġsini":12740,"tero":12741,"ĠEncuentro":12742,"ĠAlianza":12743,"Ġpeg":12744,"aqueta":12745,"ĠHombres":12746,"erador":12747,"ĠDes":12748,"Ã¤":12749,"Ġreacciones":12750,"Ġcocinar":12751,"Ġambientes":12752,"Ġespecialidad":12753,"ĠSum":12754,"Ġaverigu":12755,"Ġvoluntarios":12756,"ĠDisney":12757,"ĠjaponÃ©s":12758,"Ġinstituto":12759,"icto":12760,"dias":12761,"iko":12762,"Ġdecirlo":12763,"Ġfiele":12764,"hÃŃa":12765,"Ġfieles":12766,"Ġincertidumbre":12767,"Ġfundamentalmente":12768,"fin":12769,"Ġhagas":12770,"Ġdirectores":12771,"Ġandalu":12772,"itiva":12773,"Ġpatria":12774,"Ġpacto":12775,"ingos":12776,"ĠCV":12777,"ĠcrÃ³nica":12778,"CL":12779,"Ġadmite":12780,"asen":12781,"ĠFut":12782,"Ġforest":12783,"Ã¡logos":12784,"Ġdestacados":12785,"Ã©ricas":12786,"Ġinsta":12787,"ĠNike":12788,"ĠClaro":12789,"ĠdesarrollÃ³":12790,"Ġmostrando":12791,"ĠGuÃŃa":12792,"ann":12793,"Ġsecuest":12794,"Ġplenamente":12795,"jalÃ¡":12796,"Ġsurt":12797,"ĠenviÃ³":12798,"Ġpersonalizado":12799,"Ġisrael":12800,"ueven":12801,"ilado":12802,"Ġdecidieron":12803,"ataciÃ³n":12804,"Ġaseguran":12805,"Ġtrate":12806,"Ġprevista":12807,"Ġnegras":12808,"Ġpresentarse":12809,"urÃ³n":12810,"Ġrid":12811,"xt":12812,"omento":12813,"Ġocupar":12814,"Ġsemejante":12815,"ĠPrimer":12816,"Ġprovis":12817,"ĠRES":12818,"ĠpÃ¡rrafo":12819,"Ġrenuncia":12820,"Ġpermitiendo":12821,"ĠRay":12822,"ĠTeresa":12823,"Ab":12824,"Ġ53":12825,"Ġirse":12826,"Ġroca":12827,"ĠAbril":12828,"ĠYouTube":12829,"ĠChamp":12830,"ĠMacri":12831,"Ġextremos":12832,"ĠAquel":12833,"Ġuse":12834,"Ġzapatillas":12835,"vol":12836,"Ġrapidez":12837,"Ġcorreos":12838,"ĠinformÃ¡tica":12839,"amarca":12840,"ĠMaria":12841,"gÃ©n":12842,"Ġmusica":12843,"Ġfrontal":12844,"Ġensayos":12845,"Ġcubanos":12846,"ĠBolsa":12847,"Ġelectorales":12848,"Ġdele":12849,"ĠMuÃ±oz":12850,"Ġconquist":12851,"Ġmascotas":12852,"Ġcerte":12853,"aves":12854,"Ġlegit":12855,"ĠmediciÃ³n":12856,"tora":12857,"Ġflexibilidad":12858,"Ġhabiendo":12859,"ĠaquÃ©l":12860,"ĠJoaquÃŃn":12861,"ĠConstitucional":12862,"Cor":12863,"ĠWord":12864,"Ġbuc":12865,"Ġinformaciones":12866,"izc":12867,"sapp":12868,"Ġpoemas":12869,"Ġintenciones":12870,"ĠregistrÃ³":12871,"ĠAntigu":12872,"ĠParece":12873,"video":12874,"Ġunidos":12875,"ĠTour":12876,"Ġclaros":12877,"alim":12878,"ING":12879,"Ġpantallas":12880,"gramas":12881,"Ġtransfer":12882,"Ġsev":12883,"gresos":12884,"ĠrevelÃ³":12885,"ĠSecciÃ³n":12886,"unya":12887,"Ġcamisetas":12888,"Ġ58":12889,"identa":12890,"Ġfinanciamiento":12891,"tiles":12892,"Ġsupuestos":12893,"ĠMarta":12894,"Juan":12895,"Ġcuotas":12896,"Ġpotenciales":12897,"nom":12898,"Ġnervios":12899,"Ġintervenciones":12900,"Ġcosm":12901,"Ġexpone":12902,"Ġconductores":12903,"gui":12904,"Ġdesaparecer":12905,"ÃŃvar":12906,"ĠPÃ¡gina":12907,"Ġfortaleza":12908,"onible":12909,"ĠexÃ¡menes":12910,"Ġimpar":12911,"Ġdeportistas":12912,"Ġpolit":12913,"Ġpele":12914,"Ġexterno":12915,"ĠAmbos":12916,"ĠfantasÃŃa":12917,"Ġforos":12918,"Ġ(âĢľ":12919,"Ġcostado":12920,"Ġmolinos":12921,"Ġencontraban":12922,"stal":12923,"Ġurgencia":12924,"Dentro":12925,"ĠBale":12926,"ĠOlÃŃmp":12927,"ĠentregÃ³":12928,"tea":12929,"ĠConferencia":12930,"leos":12931,"Ġfuturas":12932,"Ġitaliana":12933,"Ġcans":12934,"ĠSiria":12935,"Ġrecurrir":12936,"Ġmasculino":12937,"Ġramas":12938,"Ġdolores":12939,"ĠVasco":12940,"acios":12941,"Ġparto":12942,"itaciones":12943,"Ġdisfrutando":12944,"Ġcusto":12945,"Ġ700":12946,"Ġconservar":12947,"ionada":12948,"Ġnariz":12949,"Ġconjunta":12950,"ĠTro":12951,"Ġliberales":12952,"Ġformada":12953,"ĠturÃŃstica":12954,"ĠRamos":12955,"eses":12956,"asi":12957,"Ġempezaron":12958,"ĠconcepciÃ³n":12959,"Ġverificar":12960,"Ġprotocolo":12961,"ĠcerrÃ³":12962,"alidades":12963,"igma":12964,"Ġjab":12965,"Ġbola":12966,"ĠestÃ©s":12967,"ĠAcuerdo":12968,"Ġsecciones":12969,"jera":12970,"Ã©rpre":12971,"Ġsindicatos":12972,"CIO":12973,"ĠAT":12974,"ĠBill":12975,"Ġsustancia":12976,"Ġexista":12977,"ĠMach":12978,"Ġrecep":12979,"Ġextraordinario":12980,"Ġcura":12981,"ĠLlam":12982,"ĠautomÃ³vil":12983,"ĠsanciÃ³n":12984,"Ġrespectivos":12985,"iendan":12986,"Ġpropuesto":12987,"ĠPRE":12988,"Ġconsejero":12989,"ĠLoc":12990,"Ġlice":12991,"Ġrepos":12992,"Ġefectuar":12993,"ĠacompaÃ±ada":12994,"ĠconstituciÃ³n":12995,"Ġhech":12996,"ĠAnÃ¡lisis":12997,"Ã¡tiles":12998,"Ġpene":12999,"Ġcafet":13000,"Ġcorresponden":13001,"âĨĳ":13002,"Ġpi":13003,"],":13004,"aliciÃ³n":13005,"ĠDentro":13006,"ĠquÃŃmica":13007,"Ġaparentemente":13008,"Ġvolar":13009,"ĠBeat":13010,"Ġfavore":13011,"Reg":13012,"ĠSalamanca":13013,"ĠDiciembre":13014,"ĠPark":13015,"embra":13016,"Ġcomprado":13017,"Ġunido":13018,"ĠOv":13019,"Ġamort":13020,"Ġbloqueo":13021,"ĠHaz":13022,"ĠreseÃ±a":13023,"Ġconectado":13024,"Ġabund":13025,"Ġvegetales":13026,"Ã¡ut":13027,"Ġsemif":13028,"Ġprep":13029,"Ġtirar":13030,"Ġcomedia":13031,"tadas":13032,"eban":13033,"Ġiniciado":13034,"uqu":13035,"Ġconfes":13036,"Puedes":13037,"zando":13038,"Ġlocura":13039,"idra":13040,"Ġvimos":13041,"Ġcoloca":13042,"Ġentusiasmo":13043,"Ġchoque":13044,"ĠRespons":13045,"JE":13046,"Ġremedio":13047,"Ġexteriores":13048,"Ġvolante":13049,"ĠDia":13050,"ĠtrÃ¡mites":13051,"Ġcapitalismo":13052,"Vamos":13053,"Ġoscura":13054,"Ġconvencional":13055,"HA":13056,"Ġoff":13057,"Ġaborto":13058,"jetivo":13059,"cientos":13060,"uevo":13061,"Ġdistra":13062,"Ġactitude":13063,"ĠdecidÃŃ":13064,"Ġactitudes":13065,"ĠturÃŃsticos":13066,"Ġconstruct":13067,"ĠincreÃŃbles":13068,"Ã©ano":13069,"sg":13070,"ĠCapit":13071,"Ġhuesos":13072,"ĠadopciÃ³n":13073,"ĠIz":13074,"ĠEdad":13075,"App":13076,"iliario":13077,"Ġsumamente":13078,"Ġguardia":13079,"Ġconcept":13080,"disp":13081,"ĠSerÃ¡":13082,"ĠBre":13083,"alia":13084,"Ġcierra":13085,"Ġalturas":13086,"ĠConsejerÃŃa":13087,"cepto":13088,"Ġqueridos":13089,"ĠUSA":13090,"Ġsillas":13091,"Ġadecuadas":13092,"ĠDVD":13093,"Ġcalzado":13094,"Ġembarazada":13095,"Ġperfeccion":13096,"Ġ09":13097,"icol":13098,"ĠverÃ¡s":13099,"Leer":13100,"Ġsignificativo":13101,"Ġrazonable":13102,"ĠobtenciÃ³n":13103,"Ġsospechos":13104,"ĠPrecio":13105,"Ġhallar":13106,"ĠenvÃŃa":13107,"ingue":13108,"ĠmecÃ¡nica":13109,"Ã³micos":13110,"uri":13111,"Ġencuestas":13112,"Ġcorrientes":13113,"Ġoliva":13114,"rÃ³nica":13115,"dito":13116,"ajar":13117,"Ġhigiene":13118,"Ġtatu":13119,"ĠÂĵ":13120,"Ġuniversitaria":13121,"ĠfantÃ¡stico":13122,"Ġrelo":13123,"ĠproporciÃ³n":13124,"ĠDiputados":13125,"Ġsuelos":13126,"ĠMaest":13127,"avor":13128,"Ġbanca":13129,"Ġaplicable":13130,"cre":13131,"Ġreconocidos":13132,"Ġsolicitado":13133,"ĠMedina":13134,"Ġfasci":13135,"abuena":13136,"Ġinterfaz":13137,"ADOS":13138,"ĠredacciÃ³n":13139,"COM":13140,"Ġcultivos":13141,"ĠenergÃ©tico":13142,"Ġautent":13143,"ĠGold":13144,"esmo":13145,"Ġveint":13146,"Ġmeteor":13147,"Ġresultan":13148,"HO":13149,"Cat":13150,"Ġrivales":13151,"Ġayuntamiento":13152,"PL":13153,"Ġmix":13154,"isterios":13155,"ĠcaÃŃdo":13156,"Ġdesempleo":13157,"PER":13158,"Ã¡ndolos":13159,"Ġnutrientes":13160,"ĠterapÃ©ut":13161,"Ġdifundir":13162,"Ġdecimos":13163,"bio":13164,"Ġpav":13165,"Jo":13166,"urada":13167,"CuÃ¡":13168,"Ġsometer":13169,"ĠQuiero":13170,"Ġconcretamente":13171,"Ġfachada":13172,"Ġtablas":13173,"Ġencer":13174,"Ġfiltro":13175,"yn":13176,"inosa":13177,"ollywood":13178,"Ġ1993":13179,"Ġdenominada":13180,"Ġreglam":13181,"Ġgustaba":13182,"elia":13183,"Madrid":13184,"ĠseÃ±ores":13185,"ateral":13186,"ize":13187,"omat":13188,"Ġboc":13189,"Ġgrabado":13190,"Ġnoble":13191,"Ġhiciera":13192,"Ġperdon":13193,"Ġobed":13194,"Ġinmun":13195,"ĠIra":13196,"Ġpreocupe":13197,"Ġcomparar":13198,"ĠHabÃŃa":13199,"ald":13200,"Ġsabores":13201,"ĠSac":13202,"chner":13203,"Ġpudimos":13204,"58":13205,"Ġfavorecer":13206,"Ġespada":13207,"2007":13208,"ĠpapÃ¡":13209,"ĠSuiza":13210,"Ġaumentando":13211,"ĠHerrera":13212,"ĠVeracruz":13213,"Ġconstantes":13214,"Ġincidente":13215,"dent":13216,"aciÃ³":13217,"ĠdiseÃ±ada":13218,"Ġsoport":13219,"abora":13220,"Ġost":13221,"Ġllego":13222,"ĠPlaya":13223,"oreo":13224,"aren":13225,"Ã±ad":13226,"uelto":13227,"ĠEc":13228,"Ġimagenes":13229,"Ġpoema":13230,"Ġyou":13231,"Ġvenga":13232,"istÃ¡n":13233,"Ġpp":13234,"Ġmonitor":13235,"Ġpermanece":13236,"Ġpersonalizada":13237,"ĠguiÃ³n":13238,"Ġpinturas":13239,"ament":13240,"ĠPerio":13241,"Ġfla":13242,"Ġconcreta":13243,"Ġmail":13244,"ĠrecomendaciÃ³n":13245,"ĠaficiÃ³n":13246,"ĠlimÃ³n":13247,"Ġexternos":13248,"Ġfalso":13249,"Muchos":13250,"72":13251,"Ġentregado":13252,"ĠTransporte":13253,"Ġmigra":13254,"Ġmejorando":13255,"sec":13256,"Ġcerrada":13257,"ĠVideo":13258,"ĠKing":13259,"Ġrelojes":13260,"ĠTÃ©cnica":13261,"Ġdefinitivo":13262,"Ġapuestas":13263,"Ġrepl":13264,"MÃ©":13265,"Ġsincer":13266,"Ġbloques":13267,"ĠcalorÃŃas":13268,"ĠExtrem":13269,"Ġfidel":13270,"Ġsofist":13271,"Ġconcil":13272,"Ġdata":13273,"Ġformando":13274,"Ġ66":13275,"rÃŃamos":13276,"Ġadent":13277,"Ġoperar":13278,"Ġconlleva":13279,"Ġdrama":13280,"ĠtÃºn":13281,"iense":13282,"cto":13283,"ĠmÃ³dulo":13284,"Ġpantalones":13285,"Ġhablaba":13286,"ĠvergÃ¼enza":13287,"Ġpeces":13288,"Ġdeposit":13289,"Ġmezclar":13290,"ĠTrip":13291,"Ġneut":13292,"ĠhipÃ³tesis":13293,"ĠSw":13294,"Ġselect":13295,"ĠÎ":13296,"ĠHy":13297,"Ġtransformar":13298,"Ġcubana":13299,"igura":13300,"oniendo":13301,"Ġentendido":13302,"Ġsobretodo":13303,"ĠÃ©pocas":13304,"ĠÃºnicas":13305,"ï¼":13306,"Ġempezando":13307,"Ġacaso":13308,"Ġcircunstancia":13309,"Ġproce":13310,"lantes":13311,"Ġconcluir":13312,"ilados":13313,"ĠantigÃ¼edad":13314,"ĠTrib":13315,"Ġdioses":13316,"Ġconmem":13317,"Ġaportan":13318,"ĠCuerpo":13319,"ĠHue":13320,"andos":13321,"Ġmama":13322,"Ġfavorable":13323,"ĠdiÃ¡metro":13324,"Ġdesplie":13325,"ĠExteriores":13326,"Ġbarb":13327,"Ġeuropeas":13328,"ĠoÃŃr":13329,"Ġcopias":13330,"???":13331,"ĠErn":13332,"ĠsatÃ©l":13333,"ebra":13334,"Ġmaestra":13335,"ST":13336,"Ġsaludos":13337,"Ġembal":13338,"Ġdinam":13339,"Ġirrit":13340,"Ġespectaculares":13341,"Ġpregunto":13342,"ĠdetecciÃ³n":13343,"ÃŃgeno":13344,"Quieres":13345,"uyan":13346,"Ġmapas":13347,"lanos":13348,"Ġsolitario":13349,"Ġanh":13350,"ĠGalax":13351,"Ġcarg":13352,"Ġejecu":13353,"Ã©ctor":13354,"ĠRoja":13355,"ĠPant":13356,"Ġvenezolanos":13357,"Ġcarp":13358,"Ġpuntu":13359,"Ġconsig":13360,"ĠSara":13361,"ĠMÃ¡r":13362,"Ġempezado":13363,"ĠRural":13364,"Ġ1992":13365,"Ġcruce":13366,"Ġ69":13367,"usal":13368,"idiÃ³":13369,"ĠMallorca":13370,"ĠRodrigo":13371,"Ġexportaciones":13372,"Ġapoya":13373,"Ġpun":13374,"EP":13375,"54":13376,"Ġhombros":13377,"ä¸":13378,"Ã³ct":13379,"Ġsegmento":13380,"Ġ68":13381,"Ġcentra":13382,"rÃ¡tico":13383,"ĠEscrit":13384,"pod":13385,"ĠextracciÃ³n":13386,"siqui":13387,"Ġaprovechando":13388,"Ġconfiar":13389,"Ġcanto":13390,"ĠMark":13391,"Ġficha":13392,"Ġseca":13393,"Ġrealizamos":13394,"ĠdarÃ¡n":13395,"Ġreunir":13396,"iamos":13397,"gues":13398,"ONA":13399,"Ġneuro":13400,"ĠmÃŃnimos":13401,"Ġdescu":13402,"ĠMedel":13403,"olut":13404,"Ġestablecidas":13405,"ĠTipo":13406,"Ġsupervivencia":13407,"Ġtrabajamos":13408,"Ġacercarse":13409,"Ġtalentos":13410,"ĠRioja":13411,"desb":13412,"ors":13413,"Ġexclu":13414,"actado":13415,"uba":13416,"ihu":13417,"uana":13418,"Ġcontempla":13419,"ĠVargas":13420,"Ġrequerimientos":13421,"ĠValent":13422,"Ġreligioso":13423,"ĠcÃ³digos":13424,"ĠCaja":13425,"ĠrecibirÃ¡":13426,"ĠCaf":13427,"cuando":13428,"Fel":13429,"IENTO":13430,"Ġpreca":13431,"ĠAvenida":13432,"ĠsurgiÃ³":13433,"ĠVill":13434,"Ġinterrump":13435,"Ġexpresamente":13436,"ĠElena":13437,"Ġjusta":13438,"Ġdiscre":13439,"Ġrelativo":13440,"Ġejemplar":13441,"cota":13442,"Ġmedicamento":13443,"erson":13444,"Ġconsola":13445,"intendo":13446,"ĠCaball":13447,"Ġpotenciar":13448,"Ġalegre":13449,"Ã±ado":13450,"upe":13451,"Ġnegativos":13452,"Ġelevada":13453,"Ġincluidas":13454,"esem":13455,"ĠproblemÃ¡tica":13456,"venta":13457,"ĠPi":13458,"Ġcruzar":13459,"ken":13460,"ĠintentÃ³":13461,"Ġextens":13462,"desmo":13463,"ĠBaja":13464,"udencia":13465,"Ġsoportar":13466,"Ġllamo":13467,"ĠmaÃŃz":13468,"Ġexcusa":13469,"cast":13470,"acÃŃa":13471,"Ġpuertos":13472,"Ġtax":13473,"--------":13474,"Ġcontemplar":13475,"ĠChe":13476,"Ġagro":13477,"Gran":13478,"ĠEquipo":13479,"Ġcamas":13480,"ENTA":13481,"Ġgoma":13482,"Ġtet":13483,"ĠMunicipio":13484,"Ġreact":13485,"ectar":13486,"Ġbasados":13487,"Ġhumo":13488,"Ã¡sticas":13489,"Ġlesb":13490,"ARI":13491,"ĠEU":13492,"Ġflexible":13493,"Ġprel":13494,"Ġgole":13495,"Ġgala":13496,"key":13497,"Ġrara":13498,"Ã©mico":13499,"Ġconvencer":13500,"Ġcarpeta":13501,"Ġmagnitud":13502,"fitr":13503,"adre":13504,"landia":13505,"ĠmenciÃ³n":13506,"amor":13507,"Ġrebo":13508,"Ġnubes":13509,"Ġreservar":13510,"Ġfina":13511,"Ġcercanas":13512,"Ġatractivos":13513,"Ġevitando":13514,"ĠFar":13515,"ĠBerlÃŃn":13516,"ĠPay":13517,"Ġperiodismo":13518,"ĠorÃŃgenes":13519,"ĠLibert":13520,"omÃ©t":13521,"Ġtuyo":13522,"Ġconden":13523,"Ġ900":13524,"TES":13525,"Ġdieci":13526,"Ġdroga":13527,"ĠReb":13528,"Ġsuman":13529,"Ġcertamen":13530,"ĠCC":13531,"ĠMarzo":13532,"ĠdedicaciÃ³n":13533,"Ġhero":13534,"Ġeco":13535,"Ġaccesible":13536,"Ġsaliendo":13537,"ĠvolverÃ¡":13538,"Ã³ma":13539,"Ãºme":13540,"nico":13541,"Ġjajaj":13542,"Ġmensaj":13543,"Ġcultiv":13544,"ĠRecord":13545,"ĠExtra":13546,"Ġfraude":13547,"Ġnuclear":13548,"ĠPilar":13549,"uter":13550,"ĠCuent":13551,"Ġarmado":13552,"Ġdesb":13553,"Buenas":13554,"Tiene":13555,"Ġplay":13556,"ĠBuena":13557,"ĠcomenzarÃ¡":13558,"ĠsustituciÃ³n":13559,"acimiento":13560,"Part":13561,"Ġcalientes":13562,"Ġsaludables":13563,"ĠfenÃ³menos":13564,"naval":13565,"ĠIntegr":13566,"ĠDeporte":13567,"52":13568,"uevas":13569,"ĠJon":13570,"Ġacaban":13571,"tarse":13572,"ĠMone":13573,"Ġabandono":13574,"Ġterrest":13575,"ink":13576,"Ġign":13577,"Ġvariar":13578,"ĠAnal":13579,"Ġgriego":13580,"Ġcompleja":13581,"600":13582,"ĠEditorial":13583,"ĠfarmacÃ©ut":13584,"ĠPersonas":13585,"Pos":13586,"rateg":13587,"Ġhabitualmente":13588,"Ġlentamente":13589,"rillo":13590,"ncialmente":13591,"Ġconsidero":13592,"Ġlibert":13593,"Ġsustituir":13594,"Ġreporte":13595,"Ġmister":13596,"Ġexplicaciones":13597,"ION":13598,"Ġadaptarse":13599,"Ġsaca":13600,"ĠacadÃ©micos":13601,"ĠTomÃ¡s":13602,"ĠOpen":13603,"CIAS":13604,"herente":13605,"ikip":13606,"Ñı":13607,"ĠTend":13608,"ĠQuizÃ¡s":13609,"Ġfallecido":13610,"ondrÃ¡":13611,"Ġencargada":13612,"EF":13613,"oyo":13614,"Ġchileno":13615,"ĠRojo":13616,"ĠONG":13617,"Ġhamb":13618,"ĠComercial":13619,"Ġcontento":13620,"Ġespont":13621,"ĠFra":13622,"ĠEstudio":13623,"Ġfollando":13624,"Ġidentificado":13625,"Ġmediev":13626,"Ã©neros":13627,"desem":13628,"Ġcompetente":13629,"ustria":13630,"ĠVillar":13631,"Solo":13632,"Ġdesactiv":13633,"Ġpereg":13634,"Ġgel":13635,"Ġatraves":13636,"Ġpromesa":13637,"Ġpredomin":13638,"Ġmide":13639,"ĠJean":13640,"Ġgramos":13641,"urrir":13642,"ĠNadie":13643,"kia":13644,"Ġdesaparecido":13645,"Ġtac":13646,"Ġmasajes":13647,"Ġultimo":13648,"Ġdesmo":13649,"Ġanfitr":13650,"Ġ360":13651,"Ġhablo":13652,"Ġconsiderando":13653,"Ġespectador":13654,"ĠLicenci":13655,"Ġimput":13656,"Ġinicialmente":13657,"icioso":13658,"ĠBarb":13659,"ĠestÃŃm":13660,"ĠInnovaciÃ³n":13661,"Ġpropici":13662,"tivo":13663,"Ġmonte":13664,"Ġnombrado":13665,"Ġcriminal":13666,"ĠJosep":13667,"Ġllorar":13668,"Ġuniversitario":13669,"Ġimperme":13670,"Ġdeterioro":13671,"dela":13672,"ĠAlfredo":13673,"Ġplus":13674,"EB":13675,"Ġapret":13676,"Ġmuertes":13677,"Ġbacterias":13678,"Ġmostramos":13679,"ĠSuÃ¡rez":13680,"53":13681,"actor":13682,"Ġafirmar":13683,"izador":13684,"Ġampliamente":13685,"ĠcrÃŃticos":13686,"eu":13687,"Ġvean":13688,"Ġcontamin":13689,"Ġretor":13690,"Ġdisponen":13691,"ĠpasarÃ¡":13692,"Ġmemor":13693,"Ġanaliza":13694,"ĠPacÃŃfico":13695,"Ġpido":13696,"Ġadelga":13697,"Ġpidiendo":13698,"efici":13699,"Ġsanto":13700,"ĠobstÃ¡culos":13701,"undido":13702,"quet":13703,"Ġfilas":13704,"cialmente":13705,"ek":13706,"ĠSen":13707,"Ġexpuesto":13708,"ling":13709,"ĠcalefacciÃ³n":13710,"LC":13711,"Ġagrega":13712,"Ġgros":13713,"Ġdesem":13714,"Ġpeores":13715,"ĠPere":13716,"Ġganando":13717,"ĠIngenier":13718,"Ġsobra":13719,"rick":13720,"Ġsacerdote":13721,"endientes":13722,"Ġsabiendo":13723,"Ġpatas":13724,"Ġhueco":13725,"ĠFotos":13726,"Ġbello":13727,"Ġcognit":13728,"ĠExisten":13729,"Ġcongreso":13730,"Ġfaltan":13731,"ogÃŃa":13732,"ĠCatalunya":13733,"ipa":13734,"ferencia":13735,"py":13736,"ĠdiscÃŃp":13737,"aden":13738,"ĠMetropolit":13739,"OO":13740,"Ġnervioso":13741,"ĠRepres":13742,"Ġoch":13743,"Ġsor":13744,"Ġdarles":13745,"ĠSanidad":13746,"Ġcompetitividad":13747,"unos":13748,"ĠperiÃ³dicos":13749,"PP":13750,"ĠBig":13751,"Ġplacas":13752,"Ġdesastre":13753,"parte":13754,"ĠSEO":13755,"ĠGenerales":13756,"Ġhermanas":13757,"Ġinferiores":13758,"ĠCateg":13759,"ĠSilva":13760,"Ġexponer":13761,"Ġherencia":13762,"Ġcolombiana":13763,"ĠVideos":13764,"ĠCartagena":13765,"Ġbesos":13766,"urio":13767,"ĠmÃºsico":13768,"Ġdensidad":13769,"Ġfacultad":13770,"Ciudad":13771,"Ġneur":13772,"ĠEt":13773,"Ġintentado":13774,"Ġconfigurar":13775,"Ġenfermos":13776,"ĠCamino":13777,"ĠtecnolÃ³gicos":13778,"ocimiento":13779,"ĠIVA":13780,"Je":13781,"ĀĀĀĀĀĀĀĀĀĀĀĀĀĀĀĀ":13782,"ĠXVIII":13783,"Ġprimas":13784,"ĠconociÃ³":13785,"Ġhistori":13786,"Ġcorona":13787,"ĠsanguÃŃ":13788,"Ġced":13789,"ĠObras":13790,"ĠIslas":13791,"ĠSeÃ±ora":13792,"Ġcabec":13793,"Ġgases":13794,"Ġconstancia":13795,"Ġestaremos":13796,"Ġcontag":13797,"ĠcarbÃ³n":13798,"Foto":13799,"ĠConven":13800,"Ġdiscutir":13801,"Ġcomplementos":13802,"loc":13803,"ĠcomitÃ©":13804,"Ġencuentren":13805,"Ġaur":13806,"Ġpagan":13807,"esor":13808,"Ġsuponer":13809,"Ġsemanal":13810,"Ġsanitario":13811,"cionamiento":13812,"ĠelÃ©ctricas":13813,"Ġreparar":13814,"Ġgab":13815,"ĠbrasileÃ±o":13816,"Ġrefugio":13817,"Ġevita":13818,"Ġretiro":13819,"Ġcav":13820,"mith":13821,"Ġacordar":13822,"ordia":13823,"Ġeno":13824,"ĠLy":13825,"Ġdirectiva":13826,"Ġdisponemos":13827,"lip":13828,"Ġbotones":13829,"Ġsumerg":13830,"ĠfalleciÃ³":13831,"Ġdebidamente":13832,"2009":13833,"ĠtamaÃ±os":13834,"ĠestÃ³ma":13835,"Ġobligados":13836,"Ġjefes":13837,"ĠclÃ¡us":13838,"ĠDic":13839,"azÃ³n":13840,"Ġrusa":13841,"Cabe":13842,"Ġtranscurso":13843,"rara":13844,"Ġservido":13845,"Ġdefinido":13846,"ÃŃl":13847,"Ġcolegas":13848,"Ġfalla":13849,"gob":13850,"Ġcerteza":13851,"ĠCenter":13852,"Ġmaduras":13853,"Ġperspectivas":13854,"73":13855,"MC":13856,"gÃ³n":13857,"ĠTerrit":13858,"Ġchor":13859,"Ñĭ":13860,"ĠpensiÃ³n":13861,"Ġconstruc":13862,"ĠlÃ¡grimas":13863,"ĠFrases":13864,"Ġseno":13865,"http":13866,"Ġconfirma":13867,"Ġutilizadas":13868,"Ġbandej":13869,"Ġindustrias":13870,"Ġmodernas":13871,"82":13872,"Ġranking":13873,"Ġmensuales":13874,"Ð°Ð":13875,
[...]
